{
    "merges": [
        [
            "t",
            "h"
        ],
        [
            "i",
            "n"
        ],
        [
            "a",
            "n"
        ],
        [
            "th",
            "e"
        ],
        [
            "r",
            "e"
        ],
        [
            "o",
            "n"
        ],
        [
            "a",
            "t"
        ],
        [
            "e",
            "r"
        ],
        [
            "e",
            "n"
        ],
        [
            "s",
            "t"
        ],
        [
            "a",
            "l"
        ],
        [
            "o",
            "r"
        ],
        [
            "e",
            "s"
        ],
        [
            "in",
            "g"
        ],
        [
            "an",
            "d"
        ],
        [
            "o",
            "f"
        ],
        [
            "i",
            "s"
        ],
        [
            "a",
            "r"
        ],
        [
            "e",
            "d"
        ],
        [
            "t",
            "o"
        ],
        [
            "a",
            "s"
        ],
        [
            "i",
            "t"
        ],
        [
            "i",
            "c"
        ],
        [
            "i",
            "on"
        ],
        [
            "o",
            "u"
        ],
        [
            "l",
            "e"
        ],
        [
            "en",
            "t"
        ],
        [
            "o",
            "m"
        ],
        [
            "c",
            "h"
        ],
        [
            "h",
            "e"
        ],
        [
            "c",
            "t"
        ],
        [
            "v",
            "e"
        ],
        [
            "o",
            "l"
        ],
        [
            "d",
            "e"
        ],
        [
            "r",
            "o"
        ],
        [
            "l",
            "o"
        ],
        [
            "b",
            "e"
        ],
        [
            "c",
            "e"
        ],
        [
            "s",
            "e"
        ],
        [
            "f",
            "or"
        ],
        [
            "at",
            "e"
        ],
        [
            "a",
            "m"
        ],
        [
            "at",
            "ion"
        ],
        [
            "a",
            "b"
        ],
        [
            "u",
            "r"
        ],
        [
            "l",
            "y"
        ],
        [
            "i",
            "m"
        ],
        [
            "T",
            "he"
        ],
        [
            "u",
            "s"
        ],
        [
            "i",
            "l"
        ],
        [
            "g",
            "e"
        ],
        [
            "i",
            "g"
        ],
        [
            "a",
            "d"
        ],
        [
            "a",
            "re"
        ],
        [
            "c",
            "on"
        ],
        [
            "m",
            "o"
        ],
        [
            "i",
            "st"
        ],
        [
            "s",
            "u"
        ],
        [
            "p",
            "ro"
        ],
        [
            "t",
            "e"
        ],
        [
            "i",
            "v"
        ],
        [
            "i",
            "r"
        ],
        [
            "u",
            "n"
        ],
        [
            "u",
            "t"
        ],
        [
            "e",
            "t"
        ],
        [
            "w",
            "e"
        ],
        [
            "i",
            "th"
        ],
        [
            "th",
            "at"
        ],
        [
            "w",
            "h"
        ],
        [
            "u",
            "l"
        ],
        [
            "p",
            "l"
        ],
        [
            "er",
            "s"
        ],
        [
            "i",
            "f"
        ],
        [
            "a",
            "c"
        ],
        [
            "c",
            "om"
        ],
        [
            "p",
            "o"
        ],
        [
            "w",
            "ith"
        ],
        [
            "p",
            "e"
        ],
        [
            "r",
            "a"
        ],
        [
            "lo",
            "w"
        ],
        [
            "re",
            "s"
        ],
        [
            "ou",
            "n"
        ],
        [
            "m",
            "a"
        ],
        [
            "m",
            "ent"
        ],
        [
            "t",
            "er"
        ],
        [
            "v",
            "er"
        ],
        [
            "i",
            "ve"
        ],
        [
            "f",
            "e"
        ],
        [
            "e",
            "x"
        ],
        [
            "s",
            "o"
        ],
        [
            "es",
            "s"
        ],
        [
            "i",
            "d"
        ],
        [
            "e",
            "m"
        ],
        [
            "n",
            "o"
        ],
        [
            "f",
            "r"
        ],
        [
            "n",
            "e"
        ],
        [
            "an",
            "t"
        ],
        [
            "c",
            "l"
        ],
        [
            "a",
            "y"
        ],
        [
            "b",
            "y"
        ],
        [
            "p",
            "er"
        ],
        [
            "w",
            "or"
        ],
        [
            "i",
            "es"
        ],
        [
            "ig",
            "h"
        ],
        [
            "q",
            "u"
        ],
        [
            "d",
            "u"
        ],
        [
            "st",
            "r"
        ],
        [
            "u",
            "m"
        ],
        [
            "A",
            "l"
        ],
        [
            "h",
            "a"
        ],
        [
            "ar",
            "ch"
        ],
        [
            "l",
            "d"
        ],
        [
            "the",
            "r"
        ],
        [
            "en",
            "ce"
        ],
        [
            "al",
            "l"
        ],
        [
            "ic",
            "al"
        ],
        [
            "t",
            "s"
        ],
        [
            "k",
            "e"
        ],
        [
            "c",
            "re"
        ],
        [
            "a",
            "p"
        ],
        [
            "o",
            "p"
        ],
        [
            "ou",
            "r"
        ],
        [
            "it",
            "y"
        ],
        [
            "i",
            "al"
        ],
        [
            "t",
            "r"
        ],
        [
            "fr",
            "om"
        ],
        [
            "w",
            "as"
        ],
        [
            "c",
            "an"
        ],
        [
            "ar",
            "t"
        ],
        [
            "s",
            "h"
        ],
        [
            "a",
            "ct"
        ],
        [
            "a",
            "in"
        ],
        [
            "I",
            "n"
        ],
        [
            "f",
            "ol"
        ],
        [
            "c",
            "o"
        ],
        [
            "am",
            "a"
        ],
        [
            "h",
            "as"
        ],
        [
            "low",
            "ing"
        ],
        [
            "m",
            "e"
        ],
        [
            "u",
            "re"
        ],
        [
            "en",
            "er"
        ],
        [
            "i",
            "de"
        ],
        [
            "Al",
            "ab"
        ],
        [
            "re",
            "n"
        ],
        [
            "st",
            "ate"
        ],
        [
            "Alab",
            "ama"
        ],
        [
            "a",
            "g"
        ],
        [
            "p",
            "h"
        ],
        [
            "ion",
            "s"
        ],
        [
            "fol",
            "lowing"
        ],
        [
            "p",
            "r"
        ],
        [
            "o",
            "d"
        ],
        [
            "ou",
            "t"
        ],
        [
            "ab",
            "le"
        ],
        [
            "i",
            "z"
        ],
        [
            "T",
            "h"
        ],
        [
            "u",
            "d"
        ],
        [
            "re",
            "d"
        ],
        [
            "igh",
            "t"
        ],
        [
            "d",
            "er"
        ],
        [
            "it",
            "e"
        ],
        [
            "c",
            "r"
        ],
        [
            "s",
            "ent"
        ],
        [
            "on",
            "e"
        ],
        [
            "p",
            "or"
        ],
        [
            "in",
            "e"
        ],
        [
            "is",
            "m"
        ],
        [
            "i",
            "p"
        ],
        [
            "for",
            "m"
        ],
        [
            "ic",
            "h"
        ],
        [
            "us",
            "ed"
        ],
        [
            "a",
            "ge"
        ],
        [
            "ou",
            "s"
        ],
        [
            "il",
            "l"
        ],
        [
            "I",
            "t"
        ],
        [
            "e",
            "f"
        ],
        [
            "an",
            "arch"
        ],
        [
            "at",
            "ed"
        ],
        [
            "oun",
            "d"
        ],
        [
            "c",
            "ess"
        ],
        [
            "ou",
            "ld"
        ],
        [
            "2",
            "0"
        ],
        [
            "a",
            "st"
        ],
        [
            "wh",
            "ich"
        ],
        [
            "in",
            "d"
        ],
        [
            "i",
            "b"
        ],
        [
            "com",
            "p"
        ],
        [
            "ha",
            "ve"
        ],
        [
            "an",
            "s"
        ],
        [
            "it",
            "s"
        ],
        [
            "o",
            "w"
        ],
        [
            "en",
            "d"
        ],
        [
            "be",
            "t"
        ],
        [
            "a",
            "u"
        ],
        [
            "an",
            "g"
        ],
        [
            "is",
            "h"
        ],
        [
            "f",
            "o"
        ],
        [
            "g",
            "h"
        ],
        [
            "an",
            "y"
        ],
        [
            "ar",
            "y"
        ],
        [
            "sent",
            "ence"
        ],
        [
            "b",
            "ed"
        ],
        [
            "ac",
            "k"
        ],
        [
            "t",
            "y"
        ],
        [
            "u",
            "p"
        ],
        [
            "a",
            "ch"
        ],
        [
            "b",
            "o"
        ],
        [
            "as",
            "s"
        ],
        [
            "g",
            "r"
        ],
        [
            "ic",
            "e"
        ],
        [
            "i",
            "e"
        ],
        [
            "l",
            "l"
        ],
        [
            "c",
            "es"
        ],
        [
            "le",
            "ct"
        ],
        [
            "bed",
            "o"
        ],
        [
            "ou",
            "gh"
        ],
        [
            "k",
            "ing"
        ],
        [
            "su",
            "ch"
        ],
        [
            "cre",
            "as"
        ],
        [
            "c",
            "ur"
        ],
        [
            "om",
            "e"
        ],
        [
            "a",
            "ce"
        ],
        [
            "g",
            "o"
        ],
        [
            "no",
            "w"
        ],
        [
            "c",
            "i"
        ],
        [
            "p",
            "res"
        ],
        [
            "an",
            "ce"
        ],
        [
            "al",
            "so"
        ],
        [
            "c",
            "ent"
        ],
        [
            "g",
            "y"
        ],
        [
            "i",
            "le"
        ],
        [
            "re",
            "e"
        ],
        [
            "por",
            "t"
        ],
        [
            "al",
            "bedo"
        ],
        [
            "mo",
            "re"
        ],
        [
            "s",
            "p"
        ],
        [
            "in",
            "cl"
        ],
        [
            "al",
            "ly"
        ],
        [
            "t",
            "w"
        ],
        [
            "1",
            "9"
        ],
        [
            "u",
            "st"
        ],
        [
            "at",
            "er"
        ],
        [
            "o",
            "ther"
        ],
        [
            "the",
            "ir"
        ],
        [
            "ct",
            "ion"
        ],
        [
            "com",
            "m"
        ],
        [
            "s",
            "y"
        ],
        [
            "ar",
            "d"
        ],
        [
            "am",
            "e"
        ],
        [
            "Th",
            "is"
        ],
        [
            "R",
            "e"
        ],
        [
            "at",
            "es"
        ],
        [
            "k",
            "s"
        ],
        [
            "at",
            "ive"
        ],
        [
            "ation",
            "s"
        ],
        [
            "ne",
            "w"
        ],
        [
            "on",
            "g"
        ],
        [
            "A",
            "n"
        ],
        [
            "s",
            "ol"
        ],
        [
            "c",
            "oun"
        ],
        [
            "d",
            "if"
        ],
        [
            "con",
            "t"
        ],
        [
            "s",
            "pe"
        ],
        [
            "in",
            "creas"
        ],
        [
            "ig",
            "n"
        ],
        [
            "iv",
            "en"
        ],
        [
            "po",
            "s"
        ],
        [
            "a",
            "v"
        ],
        [
            "e",
            "l"
        ],
        [
            "e",
            "ar"
        ],
        [
            "s",
            "er"
        ],
        [
            "t",
            "im"
        ],
        [
            "fe",
            "ct"
        ],
        [
            "an",
            "ge"
        ],
        [
            "mo",
            "st"
        ],
        [
            "m",
            "er"
        ],
        [
            "ist",
            "s"
        ],
        [
            "d",
            "es"
        ],
        [
            "h",
            "ad"
        ],
        [
            "re",
            "st"
        ],
        [
            "ar",
            "i"
        ],
        [
            "p",
            "le"
        ],
        [
            "p",
            "art"
        ],
        [
            "w",
            "ay"
        ],
        [
            "it",
            "ion"
        ],
        [
            "b",
            "l"
        ],
        [
            "b",
            "er"
        ],
        [
            "d",
            "o"
        ],
        [
            "t",
            "a"
        ],
        [
            "0",
            "0"
        ],
        [
            "no",
            "t"
        ],
        [
            "wor",
            "d"
        ],
        [
            "d",
            "at"
        ],
        [
            "l",
            "i"
        ],
        [
            "or",
            "y"
        ],
        [
            "ut",
            "ion"
        ],
        [
            "tw",
            "o"
        ],
        [
            "W",
            "h"
        ],
        [
            "c",
            "ial"
        ],
        [
            "d",
            "is"
        ],
        [
            "re",
            "f"
        ],
        [
            "c",
            "ol"
        ],
        [
            "e",
            "v"
        ],
        [
            "ar",
            "ge"
        ],
        [
            "b",
            "r"
        ],
        [
            "n",
            "ing"
        ],
        [
            "th",
            "an"
        ],
        [
            "we",
            "en"
        ],
        [
            "e",
            "st"
        ],
        [
            "n",
            "um"
        ],
        [
            "1",
            "8"
        ],
        [
            "u",
            "e"
        ],
        [
            "bet",
            "ween"
        ],
        [
            "f",
            "ul"
        ],
        [
            "l",
            "ight"
        ],
        [
            "en",
            "s"
        ],
        [
            "ur",
            "al"
        ],
        [
            "ren",
            "t"
        ],
        [
            "g",
            "re"
        ],
        [
            "t",
            "ra"
        ],
        [
            "or",
            "s"
        ],
        [
            "ic",
            "s"
        ],
        [
            "t",
            "ing"
        ],
        [
            "be",
            "en"
        ],
        [
            "pro",
            "v"
        ],
        [
            "wor",
            "k"
        ],
        [
            "c",
            "or"
        ],
        [
            "i",
            "a"
        ],
        [
            "i",
            "re"
        ],
        [
            "th",
            "is"
        ],
        [
            "pro",
            "du"
        ],
        [
            "op",
            "le"
        ],
        [
            "v",
            "o"
        ],
        [
            "as",
            "e"
        ],
        [
            "pro",
            "cess"
        ],
        [
            "ab",
            "out"
        ],
        [
            "l",
            "ine"
        ],
        [
            "o",
            "b"
        ],
        [
            "r",
            "ite"
        ],
        [
            "s",
            "ur"
        ],
        [
            "u",
            "de"
        ],
        [
            "in",
            "to"
        ],
        [
            "st",
            "em"
        ],
        [
            "if",
            "ic"
        ],
        [
            "m",
            "ar"
        ],
        [
            "v",
            "al"
        ],
        [
            "sh",
            "ould"
        ],
        [
            "ener",
            "ate"
        ],
        [
            "ef",
            "fect"
        ],
        [
            "e",
            "p"
        ],
        [
            "ur",
            "ing"
        ],
        [
            "ul",
            "t"
        ],
        [
            "pe",
            "ople"
        ],
        [
            "dat",
            "a"
        ],
        [
            "S",
            "t"
        ],
        [
            "g",
            "iven"
        ],
        [
            "l",
            "arge"
        ],
        [
            "at",
            "ing"
        ],
        [
            "he",
            "re"
        ],
        [
            "if",
            "y"
        ],
        [
            "str",
            "u"
        ],
        [
            "dif",
            "fe"
        ],
        [
            "d",
            "ay"
        ],
        [
            "u",
            "se"
        ],
        [
            "le",
            "t"
        ],
        [
            "de",
            "c"
        ],
        [
            "de",
            "l"
        ],
        [
            "we",
            "re"
        ],
        [
            "iz",
            "e"
        ],
        [
            "c",
            "al"
        ],
        [
            "l",
            "es"
        ],
        [
            "p",
            "re"
        ],
        [
            "s",
            "ome"
        ],
        [
            "u",
            "al"
        ],
        [
            "y",
            "ou"
        ],
        [
            "ent",
            "s"
        ],
        [
            "te",
            "m"
        ],
        [
            "anarch",
            "ism"
        ],
        [
            "sy",
            "stem"
        ],
        [
            "li",
            "ke"
        ],
        [
            "A",
            "mer"
        ],
        [
            "m",
            "in"
        ],
        [
            "m",
            "an"
        ],
        [
            "o",
            "ver"
        ],
        [
            "in",
            "ter"
        ],
        [
            "at",
            "ure"
        ],
        [
            "le",
            "ar"
        ],
        [
            "Amer",
            "ic"
        ],
        [
            "1",
            "0"
        ],
        [
            "H",
            "e"
        ],
        [
            "f",
            "ic"
        ],
        [
            "r",
            "ough"
        ],
        [
            "ur",
            "n"
        ],
        [
            "ser",
            "v"
        ],
        [
            "tim",
            "e"
        ],
        [
            "a",
            "k"
        ],
        [
            "b",
            "ut"
        ],
        [
            "v",
            "ol"
        ],
        [
            "the",
            "m"
        ],
        [
            "us",
            "ing"
        ],
        [
            "are",
            "a"
        ],
        [
            "ir",
            "st"
        ],
        [
            "ment",
            "s"
        ],
        [
            "ener",
            "gy"
        ],
        [
            "h",
            "igh"
        ],
        [
            "l",
            "ist"
        ],
        [
            "m",
            "ing"
        ],
        [
            "p",
            "ol"
        ],
        [
            "t",
            "en"
        ],
        [
            "the",
            "y"
        ],
        [
            "it",
            "ies"
        ],
        [
            "ve",
            "l"
        ],
        [
            "un",
            "der"
        ],
        [
            "wh",
            "o"
        ],
        [
            "pl",
            "an"
        ],
        [
            "c",
            "k"
        ],
        [
            "m",
            "any"
        ],
        [
            "n",
            "et"
        ],
        [
            "t",
            "ion"
        ],
        [
            "en",
            "g"
        ],
        [
            "it",
            "ed"
        ],
        [
            "ation",
            "al"
        ],
        [
            "ical",
            "ly"
        ],
        [
            "C",
            "h"
        ],
        [
            "b",
            "as"
        ],
        [
            "o",
            "g"
        ],
        [
            "u",
            "res"
        ],
        [
            "v",
            "ari"
        ],
        [
            "re",
            "g"
        ],
        [
            "st",
            "ud"
        ],
        [
            "he",
            "l"
        ],
        [
            "lo",
            "p"
        ],
        [
            "se",
            "t"
        ],
        [
            "im",
            "ate"
        ],
        [
            "em",
            "p"
        ],
        [
            "wor",
            "ld"
        ],
        [
            "incl",
            "ude"
        ],
        [
            "G",
            "enerate"
        ],
        [
            "l",
            "and"
        ],
        [
            "s",
            "s"
        ],
        [
            "re",
            "l"
        ],
        [
            "ve",
            "lop"
        ],
        [
            "lo",
            "y"
        ],
        [
            "D",
            "es"
        ],
        [
            "E",
            "n"
        ],
        [
            "U",
            "n"
        ],
        [
            "m",
            "ed"
        ],
        [
            "r",
            "ad"
        ],
        [
            "w",
            "ater"
        ],
        [
            "al",
            "th"
        ],
        [
            "is",
            "s"
        ],
        [
            "ab",
            "il"
        ],
        [
            "ma",
            "ke"
        ],
        [
            "b",
            "ack"
        ],
        [
            "f",
            "l"
        ],
        [
            "w",
            "er"
        ],
        [
            "the",
            "re"
        ],
        [
            "ch",
            "n"
        ],
        [
            "so",
            "ci"
        ],
        [
            "ib",
            "le"
        ],
        [
            "c",
            "ap"
        ],
        [
            "h",
            "o"
        ],
        [
            "i",
            "an"
        ],
        [
            "w",
            "ill"
        ],
        [
            "y",
            "our"
        ],
        [
            "re",
            "du"
        ],
        [
            "ul",
            "ar"
        ],
        [
            "Wh",
            "at"
        ],
        [
            "ref",
            "lect"
        ],
        [
            "hel",
            "p"
        ],
        [
            "C",
            "om"
        ],
        [
            "c",
            "y"
        ],
        [
            "f",
            "in"
        ],
        [
            "f",
            "ace"
        ],
        [
            "f",
            "irst"
        ],
        [
            "i",
            "ous"
        ],
        [
            "l",
            "ess"
        ],
        [
            "t",
            "ed"
        ],
        [
            "on",
            "s"
        ],
        [
            "ic",
            "es"
        ],
        [
            "de",
            "velop"
        ],
        [
            "we",
            "b"
        ],
        [
            "incl",
            "ud"
        ],
        [
            "a",
            "w"
        ],
        [
            "k",
            "now"
        ],
        [
            "v",
            "ir"
        ],
        [
            "y",
            "ear"
        ],
        [
            "at",
            "s"
        ],
        [
            "con",
            "om"
        ],
        [
            "te",
            "chn"
        ],
        [
            "pl",
            "ain"
        ],
        [
            "bo",
            "th"
        ],
        [
            "D",
            "e"
        ],
        [
            "c",
            "ed"
        ],
        [
            "f",
            "act"
        ],
        [
            "l",
            "ed"
        ],
        [
            "r",
            "it"
        ],
        [
            "s",
            "m"
        ],
        [
            "u",
            "c"
        ],
        [
            "mo",
            "ve"
        ],
        [
            "iv",
            "id"
        ],
        [
            "wh",
            "en"
        ],
        [
            "pl",
            "ic"
        ],
        [
            "ma",
            "in"
        ],
        [
            "ver",
            "y"
        ],
        [
            "ex",
            "am"
        ],
        [
            "anarch",
            "ist"
        ],
        [
            "au",
            "se"
        ],
        [
            "ty",
            "p"
        ],
        [
            "b",
            "u"
        ],
        [
            "o",
            "k"
        ],
        [
            "r",
            "ic"
        ],
        [
            "of",
            "f"
        ],
        [
            "tr",
            "ans"
        ],
        [
            "ang",
            "u"
        ],
        [
            "pres",
            "ent"
        ],
        [
            "E",
            "x"
        ],
        [
            "P",
            "ro"
        ],
        [
            "W",
            "e"
        ],
        [
            "a",
            "f"
        ],
        [
            "c",
            "ause"
        ],
        [
            "f",
            "ind"
        ],
        [
            "h",
            "ow"
        ],
        [
            "i",
            "be"
        ],
        [
            "m",
            "s"
        ],
        [
            "s",
            "ch"
        ],
        [
            "t",
            "re"
        ],
        [
            "t",
            "ain"
        ],
        [
            "th",
            "rough"
        ],
        [
            "in",
            "du"
        ],
        [
            "comm",
            "un"
        ],
        [
            "A",
            "I"
        ],
        [
            "C",
            "on"
        ],
        [
            "c",
            "a"
        ],
        [
            "g",
            "an"
        ],
        [
            "at",
            "ures"
        ],
        [
            "or",
            "der"
        ],
        [
            "it",
            "al"
        ],
        [
            "ch",
            "ange"
        ],
        [
            "ro",
            "w"
        ],
        [
            "con",
            "s"
        ],
        [
            "iv",
            "es"
        ],
        [
            "ers",
            "on"
        ],
        [
            "per",
            "i"
        ],
        [
            "iz",
            "ed"
        ],
        [
            "cr",
            "ibe"
        ],
        [
            "c",
            "ar"
        ],
        [
            "e",
            "conom"
        ],
        [
            "f",
            "un"
        ],
        [
            "g",
            "lo"
        ],
        [
            "p",
            "ar"
        ],
        [
            "on",
            "ly"
        ],
        [
            "st",
            "and"
        ],
        [
            "ing",
            "s"
        ],
        [
            "im",
            "port"
        ],
        [
            "su",
            "l"
        ],
        [
            "wh",
            "ile"
        ],
        [
            "gr",
            "am"
        ],
        [
            "stru",
            "ct"
        ],
        [
            "b",
            "al"
        ],
        [
            "h",
            "is"
        ],
        [
            "j",
            "e"
        ],
        [
            "v",
            "ing"
        ],
        [
            "in",
            "te"
        ],
        [
            "al",
            "s"
        ],
        [
            "is",
            "e"
        ],
        [
            "le",
            "g"
        ],
        [
            "mo",
            "del"
        ],
        [
            "po",
            "wer"
        ],
        [
            "ust",
            "om"
        ],
        [
            "word",
            "s"
        ],
        [
            "tem",
            "per"
        ],
        [
            "d",
            "ist"
        ],
        [
            "g",
            "l"
        ],
        [
            "g",
            "ener"
        ],
        [
            "l",
            "angu"
        ],
        [
            "m",
            "em"
        ],
        [
            "o",
            "c"
        ],
        [
            "o",
            "gy"
        ],
        [
            "p",
            "ut"
        ],
        [
            "al",
            "y"
        ],
        [
            "le",
            "ad"
        ],
        [
            "ur",
            "y"
        ],
        [
            "ge",
            "t"
        ],
        [
            "iv",
            "er"
        ],
        [
            "res",
            "p"
        ],
        [
            "so",
            "cial"
        ],
        [
            "An",
            "arch"
        ],
        [
            "produ",
            "ct"
        ],
        [
            "diffe",
            "rent"
        ],
        [
            "e",
            "lect"
        ],
        [
            "h",
            "um"
        ],
        [
            "t",
            "urn"
        ],
        [
            "w",
            "rite"
        ],
        [
            "he",
            "alth"
        ],
        [
            "te",
            "x"
        ],
        [
            "wh",
            "at"
        ],
        [
            "if",
            "e"
        ],
        [
            "ant",
            "s"
        ],
        [
            "ow",
            "n"
        ],
        [
            "abil",
            "ity"
        ],
        [
            "a",
            "ir"
        ],
        [
            "c",
            "ul"
        ],
        [
            "m",
            "on"
        ],
        [
            "n",
            "at"
        ],
        [
            "s",
            "k"
        ],
        [
            "s",
            "now"
        ],
        [
            "w",
            "ould"
        ],
        [
            "in",
            "k"
        ],
        [
            "in",
            "ess"
        ],
        [
            "et",
            "y"
        ],
        [
            "po",
            "p"
        ],
        [
            "res",
            "s"
        ],
        [
            "comp",
            "ut"
        ],
        [
            "cent",
            "ury"
        ],
        [
            "bas",
            "ed"
        ],
        [
            "emp",
            "loy"
        ],
        [
            "je",
            "ct"
        ],
        [
            "b",
            "le"
        ],
        [
            "e",
            "qu"
        ],
        [
            "m",
            "y"
        ],
        [
            "o",
            "t"
        ],
        [
            "p",
            "t"
        ],
        [
            "t",
            "ent"
        ],
        [
            "in",
            "t"
        ],
        [
            "to",
            "p"
        ],
        [
            "ic",
            "t"
        ],
        [
            "us",
            "es"
        ],
        [
            "we",
            "ll"
        ],
        [
            "cl",
            "imate"
        ],
        [
            "fo",
            "re"
        ],
        [
            "num",
            "ber"
        ],
        [
            "dec",
            "is"
        ],
        [
            "vir",
            "on"
        ],
        [
            "C",
            "re"
        ],
        [
            "f",
            "ound"
        ],
        [
            "i",
            "ed"
        ],
        [
            "i",
            "ent"
        ],
        [
            "j",
            "or"
        ],
        [
            "l",
            "ife"
        ],
        [
            "p",
            "u"
        ],
        [
            "p",
            "ha"
        ],
        [
            "w",
            "here"
        ],
        [
            "re",
            "sul"
        ],
        [
            "en",
            "ces"
        ],
        [
            "st",
            "e"
        ],
        [
            "ar",
            "s"
        ],
        [
            "ou",
            "p"
        ],
        [
            "ol",
            "ogy"
        ],
        [
            "ge",
            "st"
        ],
        [
            "pl",
            "ay"
        ],
        [
            "our",
            "ces"
        ],
        [
            "ag",
            "es"
        ],
        [
            "coun",
            "t"
        ],
        [
            "lear",
            "ning"
        ],
        [
            "rad",
            "i"
        ],
        [
            "exam",
            "ple"
        ],
        [
            "b",
            "us"
        ],
        [
            "b",
            "ers"
        ],
        [
            "d",
            "r"
        ],
        [
            "d",
            "s"
        ],
        [
            "h",
            "ist"
        ],
        [
            "k",
            "et"
        ],
        [
            "u",
            "ch"
        ],
        [
            "th",
            "ree"
        ],
        [
            "in",
            "s"
        ],
        [
            "in",
            "ce"
        ],
        [
            "es",
            "e"
        ],
        [
            "ed",
            "uc"
        ],
        [
            "it",
            "ive"
        ],
        [
            "il",
            "d"
        ],
        [
            "su",
            "m"
        ],
        [
            "com",
            "e"
        ],
        [
            "ma",
            "jor"
        ],
        [
            "gr",
            "oup"
        ],
        [
            "spe",
            "c"
        ],
        [
            "sur",
            "face"
        ],
        [
            "indu",
            "str"
        ],
        [
            "tex",
            "t"
        ],
        [
            "C",
            "l"
        ],
        [
            "c",
            "er"
        ],
        [
            "c",
            "ould"
        ],
        [
            "c",
            "ustom"
        ],
        [
            "g",
            "n"
        ],
        [
            "n",
            "or"
        ],
        [
            "o",
            "se"
        ],
        [
            "p",
            "ass"
        ],
        [
            "v",
            "i"
        ],
        [
            "v",
            "is"
        ],
        [
            "re",
            "ad"
        ],
        [
            "im",
            "p"
        ],
        [
            "su",
            "c"
        ],
        [
            "cre",
            "ate"
        ],
        [
            "me",
            "an"
        ],
        [
            "increas",
            "e"
        ],
        [
            "bl",
            "ic"
        ],
        [
            "Des",
            "cribe"
        ],
        [
            "redu",
            "ce"
        ],
        [
            "sm",
            "all"
        ],
        [
            "import",
            "ant"
        ],
        [
            "nat",
            "ural"
        ],
        [
            "viron",
            "ment"
        ],
        [
            "A",
            "s"
        ],
        [
            "c",
            "are"
        ],
        [
            "e",
            "ach"
        ],
        [
            "p",
            "red"
        ],
        [
            "s",
            "ing"
        ],
        [
            "v",
            "ed"
        ],
        [
            "ent",
            "ify"
        ],
        [
            "de",
            "p"
        ],
        [
            "The",
            "y"
        ],
        [
            "te",
            "st"
        ],
        [
            "ne",
            "ed"
        ],
        [
            "op",
            "en"
        ],
        [
            "ind",
            "ivid"
        ],
        [
            "au",
            "to"
        ],
        [
            "Re",
            "write"
        ],
        [
            "Un",
            "ited"
        ],
        [
            "includ",
            "ing"
        ],
        [
            "Ex",
            "plain"
        ],
        [
            "pu",
            "blic"
        ],
        [
            "a",
            "th"
        ],
        [
            "b",
            "lo"
        ],
        [
            "d",
            "ition"
        ],
        [
            "f",
            "ive"
        ],
        [
            "i",
            "qu"
        ],
        [
            "p",
            "ur"
        ],
        [
            "p",
            "erson"
        ],
        [
            "t",
            "end"
        ],
        [
            "w",
            "ar"
        ],
        [
            "st",
            "it"
        ],
        [
            "ar",
            "ound"
        ],
        [
            "ol",
            "s"
        ],
        [
            "be",
            "ing"
        ],
        [
            "be",
            "cause"
        ],
        [
            "se",
            "l"
        ],
        [
            "are",
            "as"
        ],
        [
            "ac",
            "cur"
        ],
        [
            "pe",
            "ct"
        ],
        [
            "ra",
            "ph"
        ],
        [
            "ter",
            "n"
        ],
        [
            "ap",
            "plic"
        ],
        [
            "cr",
            "ip"
        ],
        [
            "form",
            "ation"
        ],
        [
            "fo",
            "rest"
        ],
        [
            "go",
            "od"
        ],
        [
            "coun",
            "tr"
        ],
        [
            "St",
            "ates"
        ],
        [
            "vol",
            "ution"
        ],
        [
            "Cre",
            "ate"
        ],
        [
            "individ",
            "ual"
        ],
        [
            "E",
            "ar"
        ],
        [
            "a",
            "ut"
        ],
        [
            "d",
            "ire"
        ],
        [
            "d",
            "uring"
        ],
        [
            "i",
            "ly"
        ],
        [
            "n",
            "on"
        ],
        [
            "n",
            "am"
        ],
        [
            "t",
            "al"
        ],
        [
            "th",
            "or"
        ],
        [
            "re",
            "co"
        ],
        [
            "er",
            "o"
        ],
        [
            "st",
            "o"
        ],
        [
            "is",
            "l"
        ],
        [
            "cl",
            "ass"
        ],
        [
            "ty",
            "pe"
        ],
        [
            "pres",
            "s"
        ],
        [
            "prov",
            "id"
        ],
        [
            "val",
            "ue"
        ],
        [
            "let",
            "ter"
        ],
        [
            "Americ",
            "an"
        ],
        [
            "plan",
            "et"
        ],
        [
            "techn",
            "ology"
        ],
        [
            "glo",
            "bal"
        ],
        [
            "langu",
            "age"
        ],
        [
            "educ",
            "ation"
        ],
        [
            "1",
            "7"
        ],
        [
            "A",
            "d"
        ],
        [
            "S",
            "ou"
        ],
        [
            "W",
            "rite"
        ],
        [
            "c",
            "all"
        ],
        [
            "d",
            "i"
        ],
        [
            "i",
            "er"
        ],
        [
            "s",
            "im"
        ],
        [
            "s",
            "ign"
        ],
        [
            "t",
            "as"
        ],
        [
            "u",
            "g"
        ],
        [
            "re",
            "qu"
        ],
        [
            "ic",
            "k"
        ],
        [
            "ab",
            "les"
        ],
        [
            "The",
            "re"
        ],
        [
            "con",
            "d"
        ],
        [
            "su",
            "b"
        ],
        [
            "ma",
            "king"
        ],
        [
            "ap",
            "pro"
        ],
        [
            "go",
            "ver"
        ],
        [
            "comm",
            "on"
        ],
        [
            "des",
            "ign"
        ],
        [
            "way",
            "s"
        ],
        [
            "suc",
            "cess"
        ],
        [
            "F",
            "r"
        ],
        [
            "O",
            "n"
        ],
        [
            "d",
            "en"
        ],
        [
            "d",
            "ing"
        ],
        [
            "d",
            "ig"
        ],
        [
            "e",
            "as"
        ],
        [
            "v",
            "ide"
        ],
        [
            "en",
            "vironment"
        ],
        [
            "st",
            "ory"
        ],
        [
            "of",
            "ten"
        ],
        [
            "ar",
            "k"
        ],
        [
            "to",
            "w"
        ],
        [
            "it",
            "em"
        ],
        [
            "ate",
            "g"
        ],
        [
            "po",
            "se"
        ],
        [
            "du",
            "e"
        ],
        [
            "pr",
            "of"
        ],
        [
            "anarch",
            "ists"
        ],
        [
            "bet",
            "ter"
        ],
        [
            "au",
            "thor"
        ],
        [
            "hum",
            "an"
        ],
        [
            "bus",
            "iness"
        ],
        [
            "M",
            "a"
        ],
        [
            "M",
            "ob"
        ],
        [
            "S",
            "p"
        ],
        [
            "a",
            "ve"
        ],
        [
            "b",
            "an"
        ],
        [
            "o",
            "s"
        ],
        [
            "p",
            "en"
        ],
        [
            "r",
            "ation"
        ],
        [
            "v",
            "ent"
        ],
        [
            "v",
            "ers"
        ],
        [
            "v",
            "ie"
        ],
        [
            "th",
            "ough"
        ],
        [
            "the",
            "se"
        ],
        [
            "re",
            "present"
        ],
        [
            "re",
            "turn"
        ],
        [
            "or",
            "t"
        ],
        [
            "ch",
            "ar"
        ],
        [
            "ch",
            "ang"
        ],
        [
            "he",
            "ad"
        ],
        [
            "ro",
            "ss"
        ],
        [
            "po",
            "tent"
        ],
        [
            "ap",
            "p"
        ],
        [
            "20",
            "0"
        ],
        [
            "cur",
            "rent"
        ],
        [
            "under",
            "stand"
        ],
        [
            "stud",
            "y"
        ],
        [
            "know",
            "n"
        ],
        [
            "econom",
            "y"
        ],
        [
            "Ear",
            "th"
        ],
        [
            "reco",
            "gn"
        ],
        [
            "Mob",
            "ile"
        ],
        [
            "1",
            "1"
        ],
        [
            "L",
            "ist"
        ],
        [
            "b",
            "re"
        ],
        [
            "c",
            "u"
        ],
        [
            "c",
            "le"
        ],
        [
            "f",
            "ar"
        ],
        [
            "i",
            "lo"
        ],
        [
            "j",
            "ust"
        ],
        [
            "m",
            "uch"
        ],
        [
            "n",
            "ess"
        ],
        [
            "n",
            "ame"
        ],
        [
            "in",
            "ation"
        ],
        [
            "on",
            "line"
        ],
        [
            "al",
            "pha"
        ],
        [
            "su",
            "p"
        ],
        [
            "iv",
            "ing"
        ],
        [
            "iv",
            "ed"
        ],
        [
            "ut",
            "ions"
        ],
        [
            "ma",
            "y"
        ],
        [
            "ex",
            "p"
        ],
        [
            "ex",
            "peri"
        ],
        [
            "so",
            "ph"
        ],
        [
            "pr",
            "im"
        ],
        [
            "por",
            "ts"
        ],
        [
            "form",
            "s"
        ],
        [
            "fo",
            "od"
        ],
        [
            "cont",
            "ain"
        ],
        [
            "increas",
            "ed"
        ],
        [
            "ta",
            "ke"
        ],
        [
            "prov",
            "ide"
        ],
        [
            "En",
            "gl"
        ],
        [
            "cap",
            "ital"
        ],
        [
            "web",
            "s"
        ],
        [
            "sch",
            "o"
        ],
        [
            "commun",
            "ic"
        ],
        [
            "potent",
            "ial"
        ],
        [
            "Engl",
            "ish"
        ],
        [
            "5",
            "0"
        ],
        [
            "c",
            "ing"
        ],
        [
            "e",
            "w"
        ],
        [
            "e",
            "le"
        ],
        [
            "f",
            "am"
        ],
        [
            "f",
            "ac"
        ],
        [
            "h",
            "ome"
        ],
        [
            "l",
            "ie"
        ],
        [
            "o",
            "per"
        ],
        [
            "r",
            "al"
        ],
        [
            "r",
            "is"
        ],
        [
            "r",
            "ange"
        ],
        [
            "re",
            "ct"
        ],
        [
            "at",
            "mo"
        ],
        [
            "as",
            "h"
        ],
        [
            "pro",
            "ve"
        ],
        [
            "pro",
            "gram"
        ],
        [
            "pro",
            "ble"
        ],
        [
            "ra",
            "in"
        ],
        [
            "ma",
            "de"
        ],
        [
            "act",
            "iv"
        ],
        [
            "ph",
            "r"
        ],
        [
            "sol",
            "ar"
        ],
        [
            "part",
            "ic"
        ],
        [
            "ev",
            "en"
        ],
        [
            "large",
            "st"
        ],
        [
            "diffe",
            "ren"
        ],
        [
            "vari",
            "ous"
        ],
        [
            "move",
            "ment"
        ],
        [
            "leg",
            "isl"
        ],
        [
            "F",
            "or"
        ],
        [
            "I",
            "d"
        ],
        [
            "T",
            "o"
        ],
        [
            "a",
            "ther"
        ],
        [
            "c",
            "lo"
        ],
        [
            "h",
            "and"
        ],
        [
            "i",
            "x"
        ],
        [
            "l",
            "in"
        ],
        [
            "o",
            "od"
        ],
        [
            "p",
            "a"
        ],
        [
            "p",
            "at"
        ],
        [
            "r",
            "t"
        ],
        [
            "r",
            "y"
        ],
        [
            "s",
            "ci"
        ],
        [
            "s",
            "ince"
        ],
        [
            "t",
            "on"
        ],
        [
            "y",
            "s"
        ],
        [
            "in",
            "formation"
        ],
        [
            "st",
            "or"
        ],
        [
            "or",
            "d"
        ],
        [
            "or",
            "gan"
        ],
        [
            "ou",
            "d"
        ],
        [
            "om",
            "in"
        ],
        [
            "se",
            "e"
        ],
        [
            "te",
            "am"
        ],
        [
            "ir",
            "d"
        ],
        [
            "we",
            "l"
        ],
        [
            "ul",
            "ation"
        ],
        [
            "ac",
            "y"
        ],
        [
            "art",
            "ic"
        ],
        [
            "pos",
            "itive"
        ],
        [
            "year",
            "s"
        ],
        [
            "typ",
            "ically"
        ],
        [
            "fun",
            "ction"
        ],
        [
            "temper",
            "ature"
        ],
        [
            "decis",
            "ion"
        ],
        [
            "spec",
            "ies"
        ],
        [
            "char",
            "act"
        ],
        [
            "ilo",
            "soph"
        ],
        [
            "F",
            "ind"
        ],
        [
            "N",
            "ame"
        ],
        [
            "S",
            "he"
        ],
        [
            "a",
            "il"
        ],
        [
            "c",
            "at"
        ],
        [
            "h",
            "am"
        ],
        [
            "l",
            "ong"
        ],
        [
            "l",
            "aw"
        ],
        [
            "s",
            "qu"
        ],
        [
            "s",
            "ound"
        ],
        [
            "on",
            "om"
        ],
        [
            "st",
            "ates"
        ],
        [
            "al",
            "low"
        ],
        [
            "it",
            "ical"
        ],
        [
            "ou",
            "se"
        ],
        [
            "le",
            "x"
        ],
        [
            "le",
            "vel"
        ],
        [
            "ct",
            "ions"
        ],
        [
            "ce",
            "pt"
        ],
        [
            "se",
            "a"
        ],
        [
            "am",
            "ong"
        ],
        [
            "im",
            "um"
        ],
        [
            "con",
            "ne"
        ],
        [
            "con",
            "tr"
        ],
        [
            "su",
            "n"
        ],
        [
            "ter",
            "m"
        ],
        [
            "fe",
            "ed"
        ],
        [
            "qu",
            "est"
        ],
        [
            "co",
            "st"
        ],
        [
            "ef",
            "fic"
        ],
        [
            "00",
            "0"
        ],
        [
            "mar",
            "ket"
        ],
        [
            "val",
            "u"
        ],
        [
            "fl",
            "u"
        ],
        [
            "imp",
            "act"
        ],
        [
            "dition",
            "ally"
        ],
        [
            "iqu",
            "e"
        ],
        [
            "Ad",
            "ditionally"
        ],
        [
            "item",
            "s"
        ],
        [
            "Id",
            "entify"
        ],
        [
            "1",
            "5"
        ],
        [
            "2",
            "1"
        ],
        [
            "6",
            "0"
        ],
        [
            "B",
            "e"
        ],
        [
            "B",
            "ir"
        ],
        [
            "G",
            "iven"
        ],
        [
            "a",
            "im"
        ],
        [
            "a",
            "ver"
        ],
        [
            "b",
            "all"
        ],
        [
            "d",
            "ed"
        ],
        [
            "e",
            "ch"
        ],
        [
            "e",
            "ver"
        ],
        [
            "f",
            "t"
        ],
        [
            "f",
            "ree"
        ],
        [
            "j",
            "o"
        ],
        [
            "k",
            "es"
        ],
        [
            "m",
            "at"
        ],
        [
            "p",
            "ing"
        ],
        [
            "p",
            "are"
        ],
        [
            "s",
            "is"
        ],
        [
            "s",
            "ources"
        ],
        [
            "v",
            "il"
        ],
        [
            "th",
            "ing"
        ],
        [
            "an",
            "aly"
        ],
        [
            "re",
            "volution"
        ],
        [
            "on",
            "t"
        ],
        [
            "lo",
            "ve"
        ],
        [
            "ad",
            "v"
        ],
        [
            "wh",
            "y"
        ],
        [
            "with",
            "out"
        ],
        [
            "ra",
            "st"
        ],
        [
            "ra",
            "ct"
        ],
        [
            "ma",
            "ch"
        ],
        [
            "fe",
            "w"
        ],
        [
            "fe",
            "atures"
        ],
        [
            "ex",
            "t"
        ],
        [
            "id",
            "ent"
        ],
        [
            "igh",
            "ts"
        ],
        [
            "me",
            "as"
        ],
        [
            "ren",
            "ch"
        ],
        [
            "ard",
            "s"
        ],
        [
            "increas",
            "ing"
        ],
        [
            "pos",
            "s"
        ],
        [
            "vo",
            "wel"
        ],
        [
            "med",
            "ia"
        ],
        [
            "soci",
            "ety"
        ],
        [
            "resp",
            "on"
        ],
        [
            "Cl",
            "ass"
        ],
        [
            "mean",
            "ing"
        ],
        [
            "sel",
            "f"
        ],
        [
            "gover",
            "n"
        ],
        [
            "phr",
            "ase"
        ],
        [
            "C",
            "oun"
        ],
        [
            "U",
            "S"
        ],
        [
            "b",
            "on"
        ],
        [
            "c",
            "us"
        ],
        [
            "h",
            "y"
        ],
        [
            "h",
            "er"
        ],
        [
            "s",
            "or"
        ],
        [
            "s",
            "ide"
        ],
        [
            "v",
            "es"
        ],
        [
            "z",
            "e"
        ],
        [
            "an",
            "im"
        ],
        [
            "is",
            "ed"
        ],
        [
            "as",
            "on"
        ],
        [
            "am",
            "oun"
        ],
        [
            "im",
            "prove"
        ],
        [
            "mo",
            "der"
        ],
        [
            "iv",
            "ers"
        ],
        [
            "un",
            "d"
        ],
        [
            "low",
            "er"
        ],
        [
            "ver",
            "t"
        ],
        [
            "ther",
            "n"
        ],
        [
            "sh",
            "ip"
        ],
        [
            "iz",
            "ation"
        ],
        [
            "ip",
            "le"
        ],
        [
            "ang",
            "le"
        ],
        [
            "cont",
            "ent"
        ],
        [
            "ari",
            "an"
        ],
        [
            "do",
            "es"
        ],
        [
            "ific",
            "ial"
        ],
        [
            "high",
            "er"
        ],
        [
            "fact",
            "or"
        ],
        [
            "tre",
            "es"
        ],
        [
            "pop",
            "ulation"
        ],
        [
            "Sou",
            "th"
        ],
        [
            "artic",
            "le"
        ],
        [
            "Bir",
            "ming"
        ],
        [
            "vil",
            "le"
        ],
        [
            "1",
            "4"
        ],
        [
            "A",
            "t"
        ],
        [
            "A",
            "u"
        ],
        [
            "C",
            "al"
        ],
        [
            "D",
            "uring"
        ],
        [
            "F",
            "rench"
        ],
        [
            "S",
            "o"
        ],
        [
            "b",
            "od"
        ],
        [
            "c",
            "m"
        ],
        [
            "g",
            "en"
        ],
        [
            "h",
            "ouse"
        ],
        [
            "l",
            "ate"
        ],
        [
            "m",
            "et"
        ],
        [
            "n",
            "er"
        ],
        [
            "r",
            "ound"
        ],
        [
            "s",
            "of"
        ],
        [
            "s",
            "he"
        ],
        [
            "u",
            "ro"
        ],
        [
            "u",
            "ally"
        ],
        [
            "w",
            "ide"
        ],
        [
            "w",
            "rit"
        ],
        [
            "th",
            "ose"
        ],
        [
            "in",
            "c"
        ],
        [
            "an",
            "ch"
        ],
        [
            "er",
            "y"
        ],
        [
            "is",
            "su"
        ],
        [
            "as",
            "soci"
        ],
        [
            "ch",
            "e"
        ],
        [
            "he",
            "st"
        ],
        [
            "ve",
            "st"
        ],
        [
            "ol",
            "d"
        ],
        [
            "de",
            "f"
        ],
        [
            "de",
            "v"
        ],
        [
            "se",
            "arch"
        ],
        [
            "su",
            "re"
        ],
        [
            "pro",
            "te"
        ],
        [
            "pl",
            "ant"
        ],
        [
            "ne",
            "ar"
        ],
        [
            "str",
            "ing"
        ],
        [
            "tr",
            "ad"
        ],
        [
            "fol",
            "low"
        ],
        [
            "ph",
            "ilosoph"
        ],
        [
            "ie",
            "ld"
        ],
        [
            "sp",
            "ace"
        ],
        [
            "sp",
            "here"
        ],
        [
            "ear",
            "ly"
        ],
        [
            "ev",
            "ent"
        ],
        [
            "num",
            "bers"
        ],
        [
            "cor",
            "rect"
        ],
        [
            "effect",
            "s"
        ],
        [
            "serv",
            "ices"
        ],
        [
            "Pro",
            "vide"
        ],
        [
            "af",
            "ter"
        ],
        [
            "ca",
            "used"
        ],
        [
            "gener",
            "ally"
        ],
        [
            "iver",
            "se"
        ],
        [
            "Anarch",
            "ists"
        ],
        [
            "sk",
            "y"
        ],
        [
            "group",
            "s"
        ],
        [
            "custom",
            "er"
        ],
        [
            "dep",
            "end"
        ],
        [
            "stit",
            "ution"
        ],
        [
            "accur",
            "ate"
        ],
        [
            "countr",
            "y"
        ],
        [
            "press",
            "ion"
        ],
        [
            "call",
            "ed"
        ],
        [
            "tas",
            "ks"
        ],
        [
            "success",
            "ful"
        ],
        [
            "webs",
            "ite"
        ],
        [
            "feed",
            "back"
        ],
        [
            "Class",
            "ify"
        ],
        [
            "govern",
            "ment"
        ],
        [
            "moder",
            "n"
        ],
        [
            "Birming",
            "ham"
        ],
        [
            "E",
            "uro"
        ],
        [
            "J",
            "o"
        ],
        [
            "O",
            "ne"
        ],
        [
            "P",
            "h"
        ],
        [
            "a",
            "ur"
        ],
        [
            "b",
            "in"
        ],
        [
            "c",
            "up"
        ],
        [
            "c",
            "ult"
        ],
        [
            "d",
            "own"
        ],
        [
            "e",
            "i"
        ],
        [
            "e",
            "very"
        ],
        [
            "f",
            "er"
        ],
        [
            "f",
            "ish"
        ],
        [
            "g",
            "ative"
        ],
        [
            "g",
            "row"
        ],
        [
            "h",
            "ig"
        ],
        [
            "l",
            "im"
        ],
        [
            "l",
            "ast"
        ],
        [
            "l",
            "ives"
        ],
        [
            "m",
            "it"
        ],
        [
            "q",
            "rt"
        ],
        [
            "r",
            "ight"
        ],
        [
            "s",
            "al"
        ],
        [
            "s",
            "qrt"
        ],
        [
            "th",
            "od"
        ],
        [
            "in",
            "flu"
        ],
        [
            "er",
            "r"
        ],
        [
            "en",
            "ef"
        ],
        [
            "st",
            "ay"
        ],
        [
            "al",
            "le"
        ],
        [
            "ar",
            "g"
        ],
        [
            "to",
            "ge"
        ],
        [
            "de",
            "m"
        ],
        [
            "de",
            "creas"
        ],
        [
            "ro",
            "du"
        ],
        [
            "lo",
            "c"
        ],
        [
            "ab",
            "l"
        ],
        [
            "un",
            "t"
        ],
        [
            "pl",
            "es"
        ],
        [
            "pl",
            "ace"
        ],
        [
            "with",
            "in"
        ],
        [
            "per",
            "form"
        ],
        [
            "wor",
            "ks"
        ],
        [
            "sh",
            "op"
        ],
        [
            "sh",
            "ow"
        ],
        [
            "pr",
            "ice"
        ],
        [
            "sent",
            "ences"
        ],
        [
            "cont",
            "in"
        ],
        [
            "rest",
            "aur"
        ],
        [
            "serv",
            "ice"
        ],
        [
            "eng",
            "th"
        ],
        [
            "ink",
            "ed"
        ],
        [
            "comput",
            "er"
        ],
        [
            "hist",
            "or"
        ],
        [
            "industr",
            "y"
        ],
        [
            "pred",
            "ict"
        ],
        [
            "dire",
            "ct"
        ],
        [
            "sign",
            "ific"
        ],
        [
            "alpha",
            "bet"
        ],
        [
            "atmo",
            "sphere"
        ],
        [
            "squ",
            "are"
        ],
        [
            "mach",
            "ine"
        ],
        [
            "Euro",
            "pe"
        ],
        [
            "ei",
            "ther"
        ],
        [
            "hig",
            "hest"
        ],
        [
            "toge",
            "ther"
        ],
        [
            "A",
            "fr"
        ],
        [
            "C",
            "o"
        ],
        [
            "F",
            "l"
        ],
        [
            "G",
            "re"
        ],
        [
            "H",
            "o"
        ],
        [
            "M",
            "o"
        ],
        [
            "a",
            "way"
        ],
        [
            "b",
            "i"
        ],
        [
            "b",
            "enef"
        ],
        [
            "f",
            "our"
        ],
        [
            "g",
            "or"
        ],
        [
            "l",
            "ib"
        ],
        [
            "m",
            "or"
        ],
        [
            "m",
            "il"
        ],
        [
            "m",
            "ig"
        ],
        [
            "m",
            "ult"
        ],
        [
            "p",
            "ract"
        ],
        [
            "r",
            "ate"
        ],
        [
            "s",
            "n"
        ],
        [
            "s",
            "cal"
        ],
        [
            "t",
            "it"
        ],
        [
            "t",
            "ers"
        ],
        [
            "w",
            "ant"
        ],
        [
            "an",
            "cial"
        ],
        [
            "the",
            "n"
        ],
        [
            "re",
            "ach"
        ],
        [
            "re",
            "cent"
        ],
        [
            "er",
            "n"
        ],
        [
            "ar",
            "ing"
        ],
        [
            "to",
            "tal"
        ],
        [
            "as",
            "es"
        ],
        [
            "ol",
            "og"
        ],
        [
            "de",
            "b"
        ],
        [
            "ro",
            "p"
        ],
        [
            "be",
            "aut"
        ],
        [
            "se",
            "qu"
        ],
        [
            "il",
            "s"
        ],
        [
            "mo",
            "t"
        ],
        [
            "ac",
            "cess"
        ],
        [
            "ac",
            "ross"
        ],
        [
            "po",
            "st"
        ],
        [
            "ma",
            "x"
        ],
        [
            "act",
            "ion"
        ],
        [
            "co",
            "ol"
        ],
        [
            "ure",
            "d"
        ],
        [
            "ren",
            "ts"
        ],
        [
            "ple",
            "ment"
        ],
        [
            "gre",
            "en"
        ],
        [
            "gre",
            "ater"
        ],
        [
            "system",
            "s"
        ],
        [
            "man",
            "age"
        ],
        [
            "Americ",
            "a"
        ],
        [
            "stud",
            "ent"
        ],
        [
            "rel",
            "ated"
        ],
        [
            "cy",
            "cl"
        ],
        [
            "car",
            "bon"
        ],
        [
            "inte",
            "rest"
        ],
        [
            "model",
            "s"
        ],
        [
            "temper",
            "atures"
        ],
        [
            "oc",
            "cur"
        ],
        [
            "radi",
            "ation"
        ],
        [
            "cer",
            "tain"
        ],
        [
            "vi",
            "ol"
        ],
        [
            "crip",
            "t"
        ],
        [
            "fam",
            "ily"
        ],
        [
            "pa",
            "per"
        ],
        [
            "conne",
            "ct"
        ],
        [
            "effic",
            "ient"
        ],
        [
            "poss",
            "ible"
        ],
        [
            "Coun",
            "ty"
        ],
        [
            "factor",
            "ial"
        ],
        [
            "Afr",
            "ic"
        ],
        [
            "1",
            "2"
        ],
        [
            "1",
            "6"
        ],
        [
            "A",
            "r"
        ],
        [
            "C",
            "ent"
        ],
        [
            "F",
            "in"
        ],
        [
            "G",
            "ree"
        ],
        [
            "L",
            "inked"
        ],
        [
            "M",
            "ar"
        ],
        [
            "S",
            "ug"
        ],
        [
            "c",
            "ame"
        ],
        [
            "f",
            "il"
        ],
        [
            "g",
            "s"
        ],
        [
            "g",
            "in"
        ],
        [
            "g",
            "ame"
        ],
        [
            "i",
            "o"
        ],
        [
            "i",
            "red"
        ],
        [
            "l",
            "a"
        ],
        [
            "n",
            "ight"
        ],
        [
            "o",
            "te"
        ],
        [
            "p",
            "age"
        ],
        [
            "t",
            "ree"
        ],
        [
            "t",
            "ics"
        ],
        [
            "u",
            "b"
        ],
        [
            "in",
            "a"
        ],
        [
            "in",
            "sp"
        ],
        [
            "in",
            "vol"
        ],
        [
            "in",
            "put"
        ],
        [
            "re",
            "le"
        ],
        [
            "st",
            "y"
        ],
        [
            "st",
            "ep"
        ],
        [
            "al",
            "lowing"
        ],
        [
            "al",
            "gor"
        ],
        [
            "ar",
            "ies"
        ],
        [
            "it",
            "ch"
        ],
        [
            "om",
            "et"
        ],
        [
            "de",
            "fin"
        ],
        [
            "be",
            "lie"
        ],
        [
            "we",
            "ver"
        ],
        [
            "fe",
            "el"
        ],
        [
            "no",
            "vel"
        ],
        [
            "fr",
            "u"
        ],
        [
            "ne",
            "gative"
        ],
        [
            "str",
            "ateg"
        ],
        [
            "me",
            "ans"
        ],
        [
            "me",
            "thod"
        ],
        [
            "ide",
            "as"
        ],
        [
            "ag",
            "ain"
        ],
        [
            "ph",
            "ys"
        ],
        [
            "ill",
            "s"
        ],
        [
            "ill",
            "ion"
        ],
        [
            "ib",
            "ut"
        ],
        [
            "comp",
            "any"
        ],
        [
            "ish",
            "ed"
        ],
        [
            "bo",
            "ok"
        ],
        [
            "ll",
            "ig"
        ],
        [
            "sp",
            "read"
        ],
        [
            "sy",
            "n"
        ],
        [
            "Wh",
            "en"
        ],
        [
            "col",
            "lect"
        ],
        [
            "ob",
            "ject"
        ],
        [
            "inter",
            "net"
        ],
        [
            "pol",
            "l"
        ],
        [
            "develop",
            "ed"
        ],
        [
            "peri",
            "od"
        ],
        [
            "cul",
            "ate"
        ],
        [
            "war",
            "ming"
        ],
        [
            "Fr",
            "ance"
        ],
        [
            "business",
            "es"
        ],
        [
            "experi",
            "ence"
        ],
        [
            "communic",
            "ation"
        ],
        [
            "proble",
            "m"
        ],
        [
            "round",
            "ed"
        ],
        [
            "signific",
            "ant"
        ],
        [
            "algor",
            "ith"
        ],
        [
            "B",
            "y"
        ],
        [
            "I",
            "D"
        ],
        [
            "L",
            "at"
        ],
        [
            "M",
            "iss"
        ],
        [
            "T",
            "r"
        ],
        [
            "c",
            "ir"
        ],
        [
            "d",
            "it"
        ],
        [
            "d",
            "ark"
        ],
        [
            "e",
            "th"
        ],
        [
            "f",
            "ig"
        ],
        [
            "f",
            "ield"
        ],
        [
            "g",
            "ra"
        ],
        [
            "j",
            "ob"
        ],
        [
            "l",
            "ack"
        ],
        [
            "m",
            "b"
        ],
        [
            "m",
            "id"
        ],
        [
            "m",
            "ust"
        ],
        [
            "s",
            "ou"
        ],
        [
            "s",
            "id"
        ],
        [
            "s",
            "ame"
        ],
        [
            "w",
            "in"
        ],
        [
            "w",
            "al"
        ],
        [
            "in",
            "vest"
        ],
        [
            "an",
            "ish"
        ],
        [
            "re",
            "new"
        ],
        [
            "at",
            "or"
        ],
        [
            "at",
            "ch"
        ],
        [
            "st",
            "ain"
        ],
        [
            "al",
            "ity"
        ],
        [
            "it",
            "es"
        ],
        [
            "ch",
            "all"
        ],
        [
            "ve",
            "red"
        ],
        [
            "lo",
            "o"
        ],
        [
            "be",
            "low"
        ],
        [
            "be",
            "fore"
        ],
        [
            "se",
            "en"
        ],
        [
            "se",
            "cond"
        ],
        [
            "ab",
            "sor"
        ],
        [
            "im",
            "ent"
        ],
        [
            "im",
            "plement"
        ],
        [
            "us",
            "h"
        ],
        [
            "ad",
            "d"
        ],
        [
            "pro",
            "per"
        ],
        [
            "iv",
            "ity"
        ],
        [
            "ut",
            "ure"
        ],
        [
            "po",
            "em"
        ],
        [
            "ex",
            "ist"
        ],
        [
            "ex",
            "plain"
        ],
        [
            "ne",
            "cess"
        ],
        [
            "cl",
            "oud"
        ],
        [
            "ha",
            "p"
        ],
        [
            "cre",
            "ative"
        ],
        [
            "our",
            "t"
        ],
        [
            "art",
            "ificial"
        ],
        [
            "iz",
            "es"
        ],
        [
            "Th",
            "ese"
        ],
        [
            "cr",
            "it"
        ],
        [
            "comp",
            "an"
        ],
        [
            "ough",
            "t"
        ],
        [
            "port",
            "ed"
        ],
        [
            "spe",
            "ct"
        ],
        [
            "pos",
            "ed"
        ],
        [
            "ition",
            "al"
        ],
        [
            "bl",
            "ack"
        ],
        [
            "bl",
            "ue"
        ],
        [
            "col",
            "or"
        ],
        [
            "gre",
            "at"
        ],
        [
            "process",
            "ing"
        ],
        [
            "effect",
            "ive"
        ],
        [
            "stru",
            "ction"
        ],
        [
            "Americ",
            "ans"
        ],
        [
            "pol",
            "itical"
        ],
        [
            "net",
            "work"
        ],
        [
            "led",
            "ge"
        ],
        [
            "typ",
            "es"
        ],
        [
            "mem",
            "bers"
        ],
        [
            "resp",
            "ons"
        ],
        [
            "equ",
            "al"
        ],
        [
            "hist",
            "ory"
        ],
        [
            "sing",
            "le"
        ],
        [
            "auto",
            "m"
        ],
        [
            "applic",
            "ation"
        ],
        [
            "applic",
            "ations"
        ],
        [
            "appro",
            "ach"
        ],
        [
            "author",
            "ity"
        ],
        [
            "Sp",
            "anish"
        ],
        [
            "chang",
            "es"
        ],
        [
            "ele",
            "ments"
        ],
        [
            "sci",
            "ent"
        ],
        [
            "onom",
            "y"
        ],
        [
            "level",
            "s"
        ],
        [
            "amoun",
            "t"
        ],
        [
            "Jo",
            "h"
        ],
        [
            "restaur",
            "ant"
        ],
        [
            "cycl",
            "ing"
        ],
        [
            "Afric",
            "an"
        ],
        [
            "Sug",
            "gest"
        ],
        [
            "llig",
            "ence"
        ],
        [
            "C",
            "or"
        ],
        [
            "G",
            "o"
        ],
        [
            "G",
            "ul"
        ],
        [
            "H",
            "un"
        ],
        [
            "I",
            "f"
        ],
        [
            "R",
            "o"
        ],
        [
            "S",
            "e"
        ],
        [
            "S",
            "up"
        ],
        [
            "W",
            "or"
        ],
        [
            "W",
            "ar"
        ],
        [
            "a",
            "id"
        ],
        [
            "b",
            "ra"
        ],
        [
            "c",
            "ra"
        ],
        [
            "c",
            "ity"
        ],
        [
            "c",
            "ise"
        ],
        [
            "d",
            "y"
        ],
        [
            "d",
            "id"
        ],
        [
            "d",
            "iverse"
        ],
        [
            "f",
            "ra"
        ],
        [
            "f",
            "all"
        ],
        [
            "g",
            "enerate"
        ],
        [
            "i",
            "k"
        ],
        [
            "i",
            "en"
        ],
        [
            "n",
            "ature"
        ],
        [
            "p",
            "ast"
        ],
        [
            "p",
            "tion"
        ],
        [
            "r",
            "am"
        ],
        [
            "t",
            "or"
        ],
        [
            "t",
            "le"
        ],
        [
            "u",
            "te"
        ],
        [
            "th",
            "ird"
        ],
        [
            "in",
            "ts"
        ],
        [
            "an",
            "e"
        ],
        [
            "at",
            "us"
        ],
        [
            "er",
            "al"
        ],
        [
            "al",
            "ong"
        ],
        [
            "it",
            "ions"
        ],
        [
            "ion",
            "al"
        ],
        [
            "le",
            "ep"
        ],
        [
            "le",
            "ft"
        ],
        [
            "ct",
            "or"
        ],
        [
            "de",
            "st"
        ],
        [
            "ro",
            "le"
        ],
        [
            "be",
            "come"
        ],
        [
            "se",
            "c"
        ],
        [
            "se",
            "ver"
        ],
        [
            "us",
            "er"
        ],
        [
            "us",
            "ually"
        ],
        [
            "il",
            "t"
        ],
        [
            "il",
            "ity"
        ],
        [
            "ig",
            "ious"
        ],
        [
            "mo",
            "vie"
        ],
        [
            "su",
            "g"
        ],
        [
            "un",
            "ique"
        ],
        [
            "et",
            "s"
        ],
        [
            "we",
            "st"
        ],
        [
            "pl",
            "ants"
        ],
        [
            "ac",
            "count"
        ],
        [
            "com",
            "ing"
        ],
        [
            "res",
            "h"
        ],
        [
            "oun",
            "tain"
        ],
        [
            "ex",
            "tra"
        ],
        [
            "ex",
            "tre"
        ],
        [
            "ant",
            "i"
        ],
        [
            "qu",
            "ick"
        ],
        [
            "cre",
            "ating"
        ],
        [
            "op",
            "t"
        ],
        [
            "act",
            "ive"
        ],
        [
            "co",
            "vered"
        ],
        [
            "state",
            "ment"
        ],
        [
            "pr",
            "i"
        ],
        [
            "cr",
            "im"
        ],
        [
            "20",
            "th"
        ],
        [
            "20",
            "20"
        ],
        [
            "comp",
            "lex"
        ],
        [
            "end",
            "ing"
        ],
        [
            "up",
            "on"
        ],
        [
            "ach",
            "ie"
        ],
        [
            "An",
            "aly"
        ],
        [
            "dif",
            "fic"
        ],
        [
            "pos",
            "ition"
        ],
        [
            "ular",
            "ly"
        ],
        [
            "know",
            "ledge"
        ],
        [
            "econom",
            "ic"
        ],
        [
            "struct",
            "ure"
        ],
        [
            "dist",
            "ance"
        ],
        [
            "health",
            "care"
        ],
        [
            "pop",
            "ular"
        ],
        [
            "comput",
            "ers"
        ],
        [
            "decis",
            "ions"
        ],
        [
            "pur",
            "pose"
        ],
        [
            "vie",
            "w"
        ],
        [
            "scho",
            "ols"
        ],
        [
            "fac",
            "es"
        ],
        [
            "differen",
            "ce"
        ],
        [
            "legisl",
            "ature"
        ],
        [
            "jo",
            "y"
        ],
        [
            "bod",
            "y"
        ],
        [
            "dem",
            "and"
        ],
        [
            "scal",
            "e"
        ],
        [
            "mot",
            "iv"
        ],
        [
            "again",
            "st"
        ],
        [
            "Lat",
            "in"
        ],
        [
            "renew",
            "able"
        ],
        [
            "chall",
            "eng"
        ],
        [
            "necess",
            "ary"
        ],
        [
            "Joh",
            "n"
        ],
        [
            "Gul",
            "f"
        ],
        [
            "extre",
            "me"
        ],
        [
            "diffic",
            "ult"
        ],
        [
            "1",
            "3"
        ],
        [
            "H",
            "ow"
        ],
        [
            "I",
            "m"
        ],
        [
            "I",
            "ts"
        ],
        [
            "N",
            "or"
        ],
        [
            "N",
            "ational"
        ],
        [
            "P",
            "l"
        ],
        [
            "R",
            "en"
        ],
        [
            "S",
            "te"
        ],
        [
            "S",
            "um"
        ],
        [
            "a",
            "h"
        ],
        [
            "c",
            "am"
        ],
        [
            "c",
            "ase"
        ],
        [
            "d",
            "ro"
        ],
        [
            "e",
            "y"
        ],
        [
            "f",
            "ast"
        ],
        [
            "f",
            "uture"
        ],
        [
            "h",
            "al"
        ],
        [
            "i",
            "um"
        ],
        [
            "i",
            "end"
        ],
        [
            "i",
            "ents"
        ],
        [
            "m",
            "us"
        ],
        [
            "o",
            "to"
        ],
        [
            "r",
            "on"
        ],
        [
            "r",
            "ang"
        ],
        [
            "r",
            "up"
        ],
        [
            "v",
            "en"
        ],
        [
            "an",
            "n"
        ],
        [
            "an",
            "u"
        ],
        [
            "re",
            "mo"
        ],
        [
            "re",
            "cor"
        ],
        [
            "on",
            "es"
        ],
        [
            "er",
            "t"
        ],
        [
            "st",
            "er"
        ],
        [
            "st",
            "art"
        ],
        [
            "or",
            "ig"
        ],
        [
            "ou",
            "ts"
        ],
        [
            "he",
            "art"
        ],
        [
            "lo",
            "g"
        ],
        [
            "lo",
            "cal"
        ],
        [
            "be",
            "st"
        ],
        [
            "ur",
            "ban"
        ],
        [
            "are",
            "d"
        ],
        [
            "con",
            "stitution"
        ],
        [
            "iv",
            "il"
        ],
        [
            "un",
            "rounded"
        ],
        [
            "pl",
            "ac"
        ],
        [
            "res",
            "ources"
        ],
        [
            "ver",
            "b"
        ],
        [
            "ex",
            "ce"
        ],
        [
            "ex",
            "pect"
        ],
        [
            "fr",
            "iend"
        ],
        [
            "cl",
            "aim"
        ],
        [
            "wor",
            "king"
        ],
        [
            "str",
            "ong"
        ],
        [
            "ha",
            "ving"
        ],
        [
            "ts",
            "ville"
        ],
        [
            "ke",
            "ep"
        ],
        [
            "ap",
            "pl"
        ],
        [
            "sh",
            "ort"
        ],
        [
            "act",
            "ions"
        ],
        [
            "ag",
            "ing"
        ],
        [
            "ph",
            "oto"
        ],
        [
            "cr",
            "ib"
        ],
        [
            "one",
            "y"
        ],
        [
            "ip",
            "p"
        ],
        [
            "comp",
            "on"
        ],
        [
            "gr",
            "ad"
        ],
        [
            "gr",
            "ound"
        ],
        [
            "cent",
            "ral"
        ],
        [
            "other",
            "s"
        ],
        [
            "cont",
            "rast"
        ],
        [
            "ber",
            "t"
        ],
        [
            "ta",
            "il"
        ],
        [
            "dis",
            "cus"
        ],
        [
            "ev",
            "ents"
        ],
        [
            "br",
            "ing"
        ],
        [
            "est",
            "im"
        ],
        [
            "tra",
            "in"
        ],
        [
            "cor",
            "ding"
        ],
        [
            "vo",
            "ting"
        ],
        [
            "sur",
            "faces"
        ],
        [
            "net",
            "works"
        ],
        [
            "emp",
            "has"
        ],
        [
            "land",
            "s"
        ],
        [
            "develop",
            "ment"
        ],
        [
            "rit",
            "ory"
        ],
        [
            "off",
            "er"
        ],
        [
            "inte",
            "lligence"
        ],
        [
            "elect",
            "ric"
        ],
        [
            "sk",
            "ills"
        ],
        [
            "employ",
            "ment"
        ],
        [
            "int",
            "rodu"
        ],
        [
            "resul",
            "t"
        ],
        [
            "pass",
            "age"
        ],
        [
            "blo",
            "ck"
        ],
        [
            "accur",
            "acy"
        ],
        [
            "crip",
            "tion"
        ],
        [
            "forest",
            "s"
        ],
        [
            "sim",
            "ple"
        ],
        [
            "environment",
            "al"
        ],
        [
            "Ma",
            "ke"
        ],
        [
            "though",
            "t"
        ],
        [
            "understand",
            "ing"
        ],
        [
            "bre",
            "ak"
        ],
        [
            "scho",
            "ol"
        ],
        [
            "charact",
            "ers"
        ],
        [
            "quest",
            "ion"
        ],
        [
            "valu",
            "es"
        ],
        [
            "associ",
            "ated"
        ],
        [
            "lim",
            "ited"
        ],
        [
            "err",
            "ors"
        ],
        [
            "contin",
            "u"
        ],
        [
            "histor",
            "ical"
        ],
        [
            "mult",
            "iple"
        ],
        [
            "max",
            "imum"
        ],
        [
            "Linked",
            "List"
        ],
        [
            "strateg",
            "ies"
        ],
        [
            "phys",
            "ical"
        ],
        [
            "Hun",
            "tsville"
        ],
        [
            "sever",
            "al"
        ],
        [
            "sug",
            "gest"
        ],
        [
            "hal",
            "f"
        ],
        [
            "0",
            "1"
        ],
        [
            "3",
            "0"
        ],
        [
            "A",
            "f"
        ],
        [
            "B",
            "r"
        ],
        [
            "B",
            "rit"
        ],
        [
            "G",
            "ener"
        ],
        [
            "L",
            "a"
        ],
        [
            "O",
            "f"
        ],
        [
            "S",
            "h"
        ],
        [
            "T",
            "a"
        ],
        [
            "T",
            "w"
        ],
        [
            "a",
            "str"
        ],
        [
            "a",
            "ud"
        ],
        [
            "b",
            "ur"
        ],
        [
            "c",
            "lear"
        ],
        [
            "d",
            "ate"
        ],
        [
            "d",
            "iv"
        ],
        [
            "d",
            "ra"
        ],
        [
            "d",
            "ivid"
        ],
        [
            "g",
            "er"
        ],
        [
            "h",
            "ard"
        ],
        [
            "k",
            "ed"
        ],
        [
            "l",
            "on"
        ],
        [
            "l",
            "ing"
        ],
        [
            "n",
            "ational"
        ],
        [
            "n",
            "uc"
        ],
        [
            "o",
            "o"
        ],
        [
            "o",
            "x"
        ],
        [
            "o",
            "th"
        ],
        [
            "o",
            "re"
        ],
        [
            "o",
            "ve"
        ],
        [
            "r",
            "un"
        ],
        [
            "s",
            "it"
        ],
        [
            "s",
            "ize"
        ],
        [
            "t",
            "ag"
        ],
        [
            "t",
            "able"
        ],
        [
            "u",
            "el"
        ],
        [
            "v",
            "ation"
        ],
        [
            "w",
            "a"
        ],
        [
            "w",
            "on"
        ],
        [
            "in",
            "st"
        ],
        [
            "in",
            "no"
        ],
        [
            "re",
            "ce"
        ],
        [
            "re",
            "ported"
        ],
        [
            "at",
            "ors"
        ],
        [
            "st",
            "ill"
        ],
        [
            "or",
            "id"
        ],
        [
            "it",
            "ing"
        ],
        [
            "it",
            "arian"
        ],
        [
            "ic",
            "o"
        ],
        [
            "ic",
            "ism"
        ],
        [
            "le",
            "ast"
        ],
        [
            "ent",
            "ial"
        ],
        [
            "he",
            "av"
        ],
        [
            "ct",
            "ic"
        ],
        [
            "se",
            "ason"
        ],
        [
            "for",
            "ce"
        ],
        [
            "ur",
            "ther"
        ],
        [
            "ad",
            "a"
        ],
        [
            "con",
            "su"
        ],
        [
            "iv",
            "al"
        ],
        [
            "we",
            "ather"
        ],
        [
            "pl",
            "at"
        ],
        [
            "po",
            "or"
        ],
        [
            "po",
            "int"
        ],
        [
            "po",
            "ints"
        ],
        [
            "ra",
            "p"
        ],
        [
            "em",
            "iss"
        ],
        [
            "fr",
            "ont"
        ],
        [
            "ne",
            "y"
        ],
        [
            "ke",
            "y"
        ],
        [
            "ap",
            "pe"
        ],
        [
            "our",
            "s"
        ],
        [
            "In",
            "tern"
        ],
        [
            "ide",
            "a"
        ],
        [
            "ide",
            "red"
        ],
        [
            "pr",
            "om"
        ],
        [
            "pr",
            "ices"
        ],
        [
            "out",
            "put"
        ],
        [
            "por",
            "ary"
        ],
        [
            "ip",
            "s"
        ],
        [
            "bo",
            "o"
        ],
        [
            "cur",
            "rents"
        ],
        [
            "pres",
            "ents"
        ],
        [
            "tw",
            "are"
        ],
        [
            "19",
            "8"
        ],
        [
            "sol",
            "utions"
        ],
        [
            "des",
            "crib"
        ],
        [
            "ta",
            "x"
        ],
        [
            "produ",
            "ction"
        ],
        [
            "some",
            "thing"
        ],
        [
            "og",
            "raph"
        ],
        [
            "reg",
            "ion"
        ],
        [
            "iss",
            "ipp"
        ],
        [
            "Com",
            "pare"
        ],
        [
            "fin",
            "ancial"
        ],
        [
            "fact",
            "uring"
        ],
        [
            "bu",
            "y"
        ],
        [
            "bu",
            "ild"
        ],
        [
            "bu",
            "ilt"
        ],
        [
            "Con",
            "struct"
        ],
        [
            "cons",
            "ists"
        ],
        [
            "cons",
            "idered"
        ],
        [
            "power",
            "ful"
        ],
        [
            "ste",
            "ad"
        ],
        [
            "play",
            "ing"
        ],
        [
            "custom",
            "ers"
        ],
        [
            "blo",
            "g"
        ],
        [
            "person",
            "al"
        ],
        [
            "sto",
            "re"
        ],
        [
            "provid",
            "es"
        ],
        [
            "requ",
            "ire"
        ],
        [
            "dig",
            "it"
        ],
        [
            "tow",
            "n"
        ],
        [
            "vent",
            "ion"
        ],
        [
            "prim",
            "e"
        ],
        [
            "activ",
            "ities"
        ],
        [
            "differen",
            "ces"
        ],
        [
            "charact",
            "er"
        ],
        [
            "law",
            "s"
        ],
        [
            "revolution",
            "ary"
        ],
        [
            "adv",
            "ant"
        ],
        [
            "meas",
            "ured"
        ],
        [
            "respon",
            "se"
        ],
        [
            "ivers",
            "ity"
        ],
        [
            "Au",
            "str"
        ],
        [
            "sof",
            "tware"
        ],
        [
            "issu",
            "e"
        ],
        [
            "trad",
            "itional"
        ],
        [
            "philosoph",
            "ical"
        ],
        [
            "Fl",
            "orid"
        ],
        [
            "Gre",
            "at"
        ],
        [
            "manage",
            "ment"
        ],
        [
            "viol",
            "ence"
        ],
        [
            "Cent",
            "er"
        ],
        [
            "sty",
            "le"
        ],
        [
            "Miss",
            "issipp"
        ],
        [
            "fig",
            "ure"
        ],
        [
            "respons",
            "ible"
        ],
        [
            "Nor",
            "th"
        ],
        [
            "emiss",
            "ions"
        ],
        [
            "Intern",
            "ational"
        ],
        [
            "Florid",
            "a"
        ],
        [
            "2",
            "5"
        ],
        [
            "3",
            "5"
        ],
        [
            "6",
            "4"
        ],
        [
            "A",
            "p"
        ],
        [
            "B",
            "el"
        ],
        [
            "G",
            "ive"
        ],
        [
            "I",
            "s"
        ],
        [
            "M",
            "y"
        ],
        [
            "M",
            "ex"
        ],
        [
            "M",
            "any"
        ],
        [
            "O",
            "ut"
        ],
        [
            "P",
            "ho"
        ],
        [
            "S",
            "A"
        ]
    ],
    "vocab": {
        "0": 0,
        "00": 428,
        "000": 1128,
        "01": 1844,
        "1": 1,
        "10": 527,
        "11": 992,
        "12": 1439,
        "13": 1721,
        "14": 1227,
        "15": 1138,
        "16": 1440,
        "17": 915,
        "18": 449,
        "19": 378,
        "198": 1929,
        "2": 2,
        "20": 320,
        "200": 983,
        "2020": 1684,
        "20th": 1683,
        "21": 1139,
        "25": 1987,
        "3": 3,
        "30": 1845,
        "35": 1988,
        "4": 4,
        "5": 5,
        "50": 1029,
        "6": 6,
        "60": 1140,
        "64": 1989,
        "7": 7,
        "8": 8,
        "9": 9,
        "A": 10,
        "AI": 670,
        "Ad": 916,
        "Additionally": 1135,
        "Af": 1846,
        "Afr": 1367,
        "Afric": 1438,
        "African": 1608,
        "Al": 247,
        "Alab": 281,
        "Alabama": 284,
        "Amer": 519,
        "Americ": 526,
        "America": 1418,
        "American": 909,
        "Americans": 1583,
        "An": 396,
        "Analy": 1689,
        "Anarch": 726,
        "Anarchists": 1283,
        "Ap": 1990,
        "Ar": 1441,
        "As": 841,
        "At": 1228,
        "Au": 1229,
        "Austr": 1969,
        "B": 11,
        "Be": 1141,
        "Bel": 1991,
        "Bir": 1142,
        "Birming": 1225,
        "Birmingham": 1300,
        "Br": 1847,
        "Brit": 1848,
        "By": 1513,
        "C": 12,
        "Cal": 1230,
        "Cent": 1442,
        "Center": 1978,
        "Ch": 562,
        "Cl": 818,
        "Class": 1185,
        "Classify": 1297,
        "Co": 1368,
        "Com": 609,
        "Compare": 1938,
        "Con": 671,
        "Construct": 1944,
        "Cor": 1611,
        "Coun": 1190,
        "County": 1436,
        "Cre": 773,
        "Create": 888,
        "D": 13,
        "De": 631,
        "Des": 582,
        "Describe": 835,
        "During": 1231,
        "E": 14,
        "Ear": 890,
        "Earth": 989,
        "En": 583,
        "Engl": 1022,
        "English": 1028,
        "Euro": 1301,
        "Europe": 1363,
        "Ex": 655,
        "Explain": 858,
        "F": 15,
        "Fin": 1443,
        "Find": 1098,
        "Fl": 1369,
        "Florid": 1974,
        "Florida": 1986,
        "For": 1059,
        "Fr": 939,
        "France": 1505,
        "French": 1232,
        "G": 16,
        "Gener": 1849,
        "Generate": 576,
        "Give": 1992,
        "Given": 1143,
        "Go": 1612,
        "Gre": 1370,
        "Great": 1975,
        "Gree": 1444,
        "Gul": 1613,
        "Gulf": 1718,
        "H": 17,
        "He": 528,
        "Ho": 1371,
        "How": 1722,
        "Hun": 1614,
        "Huntsville": 1840,
        "I": 18,
        "ID": 1514,
        "Id": 1060,
        "Identify": 1137,
        "If": 1615,
        "Im": 1723,
        "In": 271,
        "Intern": 1917,
        "International": 1985,
        "Is": 1993,
        "It": 313,
        "Its": 1724,
        "J": 19,
        "Jo": 1302,
        "Joh": 1605,
        "John": 1717,
        "K": 20,
        "L": 21,
        "La": 1850,
        "Lat": 1515,
        "Latin": 1713,
        "Linked": 1445,
        "LinkedList": 1837,
        "List": 993,
        "M": 22,
        "Ma": 961,
        "Make": 1822,
        "Many": 1996,
        "Mar": 1446,
        "Mex": 1995,
        "Miss": 1516,
        "Mississipp": 1980,
        "Mo": 1372,
        "Mob": 962,
        "Mobile": 991,
        "My": 1994,
        "N": 23,
        "Name": 1099,
        "National": 1726,
        "Nor": 1725,
        "North": 1983,
        "O": 24,
        "Of": 1851,
        "On": 940,
        "One": 1303,
        "Out": 1997,
        "P": 25,
        "Ph": 1304,
        "Pho": 1998,
        "Pl": 1727,
        "Pro": 656,
        "Provide": 1278,
        "Q": 26,
        "R": 27,
        "Re": 389,
        "Ren": 1728,
        "Rewrite": 855,
        "Ro": 1616,
        "S": 28,
        "SA": 1999,
        "Se": 1617,
        "Sh": 1852,
        "She": 1100,
        "So": 1233,
        "Sou": 917,
        "South": 1223,
        "Sp": 963,
        "Spanish": 1598,
        "St": 493,
        "States": 886,
        "Ste": 1729,
        "Sug": 1447,
        "Suggest": 1609,
        "Sum": 1730,
        "Sup": 1618,
        "T": 29,
        "Ta": 1853,
        "Th": 294,
        "The": 186,
        "There": 929,
        "These": 1568,
        "They": 849,
        "This": 388,
        "To": 1061,
        "Tr": 1517,
        "Tw": 1854,
        "U": 30,
        "US": 1191,
        "Un": 584,
        "United": 856,
        "V": 31,
        "W": 32,
        "War": 1620,
        "We": 657,
        "Wh": 436,
        "What": 606,
        "When": 1496,
        "Wor": 1619,
        "Write": 918,
        "X": 33,
        "Y": 34,
        "Z": 35,
        "a": 36,
        "ab": 182,
        "abil": 590,
        "ability": 739,
        "abl": 1337,
        "able": 292,
        "ables": 928,
        "about": 474,
        "absor": 1550,
        "ac": 212,
        "access": 1405,
        "account": 1668,
        "accur": 876,
        "accuracy": 1817,
        "accurate": 1289,
        "ace": 360,
        "ach": 344,
        "achie": 1688,
        "ack": 341,
        "across": 1406,
        "act": 269,
        "action": 1409,
        "actions": 1781,
        "activ": 1049,
        "active": 1678,
        "activities": 1960,
        "acy": 1087,
        "ad": 191,
        "ada": 1902,
        "add": 1554,
        "adv": 1165,
        "advant": 1965,
        "af": 658,
        "after": 1279,
        "ag": 285,
        "again": 1485,
        "against": 1712,
        "age": 310,
        "ages": 791,
        "aging": 1782,
        "ah": 1731,
        "aid": 1621,
        "ail": 1101,
        "aim": 1144,
        "ain": 270,
        "air": 740,
        "ak": 534,
        "al": 149,
        "albedo": 372,
        "algor": 1470,
        "algorith": 1512,
        "ality": 1541,
        "all": 253,
        "alle": 1330,
        "allow": 1110,
        "allowing": 1469,
        "ally": 376,
        "along": 1646,
        "alpha": 1005,
        "alphabet": 1359,
        "als": 703,
        "also": 366,
        "alth": 588,
        "aly": 719,
        "am": 180,
        "ama": 274,
        "ame": 387,
        "among": 1118,
        "amoun": 1203,
        "amount": 1604,
        "an": 141,
        "analy": 1161,
        "anarch": 315,
        "anarchism": 516,
        "anarchist": 645,
        "anarchists": 956,
        "ance": 365,
        "anch": 1250,
        "ancial": 1390,
        "and": 153,
        "ane": 1643,
        "ang": 333,
        "ange": 412,
        "angle": 1214,
        "angu": 653,
        "anim": 1200,
        "anish": 1536,
        "ann": 1748,
        "ans": 327,
        "ant": 235,
        "anti": 1674,
        "ants": 737,
        "anu": 1749,
        "any": 337,
        "ap": 258,
        "app": 982,
        "appe": 1915,
        "appl": 1779,
        "applic": 880,
        "application": 1594,
        "applications": 1595,
        "appro": 933,
        "approach": 1596,
        "ar": 156,
        "arch": 249,
        "ard": 386,
        "ards": 1178,
        "are": 192,
        "area": 539,
        "areas": 875,
        "ared": 1763,
        "arg": 1331,
        "arge": 442,
        "ari": 419,
        "arian": 1216,
        "aries": 1471,
        "aring": 1395,
        "ark": 949,
        "around": 870,
        "ars": 785,
        "art": 267,
        "artic": 1088,
        "article": 1224,
        "artificial": 1566,
        "ary": 338,
        "as": 159,
        "ase": 472,
        "ases": 1397,
        "ash": 1043,
        "ason": 1202,
        "ass": 346,
        "associ": 1253,
        "associated": 1830,
        "ast": 321,
        "astr": 1855,
        "at": 145,
        "atch": 1539,
        "ate": 179,
        "ated": 316,
        "ateg": 952,
        "ater": 380,
        "ates": 390,
        "ath": 860,
        "ather": 1062,
        "ating": 496,
        "ation": 181,
        "ational": 560,
        "ations": 393,
        "ative": 392,
        "atmo": 1042,
        "atmosphere": 1360,
        "ator": 1538,
        "ators": 1888,
        "ats": 626,
        "ature": 524,
        "atures": 674,
        "atus": 1644,
        "au": 332,
        "aud": 1856,
        "aur": 1305,
        "ause": 646,
        "aut": 891,
        "author": 958,
        "authority": 1597,
        "auto": 854,
        "autom": 1593,
        "av": 406,
        "ave": 964,
        "aver": 1145,
        "aw": 622,
        "away": 1373,
        "ay": 237,
        "b": 37,
        "back": 592,
        "bal": 698,
        "ball": 1146,
        "ban": 965,
        "bas": 563,
        "based": 754,
        "be": 175,
        "beaut": 1401,
        "because": 873,
        "become": 1654,
        "bed": 340,
        "bedo": 353,
        "been": 462,
        "before": 1547,
        "being": 872,
        "belie": 1475,
        "below": 1546,
        "benef": 1375,
        "ber": 425,
        "bers": 797,
        "bert": 1793,
        "best": 1761,
        "bet": 331,
        "better": 957,
        "between": 451,
        "bi": 1374,
        "bin": 1306,
        "bl": 424,
        "black": 1576,
        "ble": 757,
        "blic": 834,
        "blo": 861,
        "block": 1816,
        "blog": 1951,
        "blue": 1577,
        "bo": 345,
        "bod": 1234,
        "body": 1708,
        "bon": 1192,
        "boo": 1925,
        "book": 1492,
        "both": 630,
        "br": 443,
        "bra": 1622,
        "bre": 994,
        "break": 1825,
        "bring": 1797,
        "bu": 648,
        "build": 1942,
        "built": 1943,
        "bur": 1857,
        "bus": 796,
        "business": 960,
        "businesses": 1506,
        "but": 535,
        "buy": 1941,
        "by": 238,
        "c": 38,
        "ca": 672,
        "cal": 508,
        "call": 919,
        "called": 1292,
        "cam": 1732,
        "came": 1448,
        "can": 266,
        "cap": 599,
        "capital": 1023,
        "car": 685,
        "carbon": 1422,
        "care": 842,
        "case": 1733,
        "cat": 1102,
        "cause": 659,
        "caused": 1280,
        "ce": 176,
        "ced": 632,
        "cent": 367,
        "central": 1790,
        "century": 753,
        "cept": 1116,
        "cer": 819,
        "certain": 1428,
        "ces": 351,
        "cess": 318,
        "ch": 167,
        "chall": 1543,
        "challeng": 1715,
        "chang": 978,
        "change": 677,
        "changes": 1599,
        "char": 977,
        "charact": 1096,
        "character": 1962,
        "characters": 1827,
        "che": 1254,
        "chn": 596,
        "ci": 363,
        "cial": 437,
        "cing": 1030,
        "cir": 1518,
        "cise": 1625,
        "city": 1624,
        "ck": 554,
        "cl": 236,
        "claim": 1773,
        "class": 903,
        "cle": 996,
        "clear": 1858,
        "climate": 768,
        "clo": 1063,
        "cloud": 1562,
        "cm": 1235,
        "co": 273,
        "col": 440,
        "collect": 1497,
        "color": 1578,
        "com": 213,
        "come": 811,
        "coming": 1669,
        "comm": 384,
        "common": 935,
        "commun": 669,
        "communic": 1026,
        "communication": 1508,
        "comp": 325,
        "compan": 1570,
        "company": 1490,
        "complex": 1685,
        "compon": 1787,
        "comput": 752,
        "computer": 1353,
        "computers": 1699,
        "con": 193,
        "cond": 930,
        "conne": 1120,
        "connect": 1433,
        "conom": 627,
        "cons": 679,
        "considered": 1946,
        "consists": 1945,
        "constitution": 1764,
        "consu": 1903,
        "cont": 400,
        "contain": 1018,
        "content": 1215,
        "contin": 1348,
        "continu": 1833,
        "contr": 1121,
        "contrast": 1792,
        "cool": 1410,
        "cor": 465,
        "cording": 1800,
        "correct": 1275,
        "cost": 1126,
        "could": 820,
        "coun": 398,
        "count": 792,
        "countr": 885,
        "country": 1290,
        "covered": 1679,
        "cr": 300,
        "cra": 1623,
        "cre": 257,
        "creas": 357,
        "create": 831,
        "creating": 1676,
        "creative": 1564,
        "crib": 1784,
        "cribe": 684,
        "crim": 1682,
        "crip": 881,
        "cript": 1430,
        "cription": 1818,
        "crit": 1569,
        "ct": 169,
        "ctic": 1898,
        "ction": 383,
        "ctions": 1115,
        "ctor": 1651,
        "cu": 995,
        "cul": 741,
        "culate": 1503,
        "cult": 1308,
        "cup": 1307,
        "cur": 358,
        "current": 984,
        "currents": 1926,
        "cus": 1193,
        "custom": 821,
        "customer": 1286,
        "customers": 1950,
        "cy": 610,
        "cycl": 1421,
        "cycling": 1607,
        "d": 39,
        "dark": 1520,
        "dat": 431,
        "data": 492,
        "date": 1859,
        "day": 501,
        "de": 172,
        "deb": 1399,
        "dec": 504,
        "decis": 771,
        "decision": 1094,
        "decisions": 1700,
        "decreas": 1334,
        "ded": 1147,
        "def": 1258,
        "defin": 1474,
        "del": 505,
        "dem": 1333,
        "demand": 1709,
        "den": 941,
        "dep": 848,
        "depend": 1287,
        "der": 298,
        "des": 416,
        "describ": 1931,
        "design": 936,
        "dest": 1652,
        "dev": 1259,
        "develop": 619,
        "developed": 1501,
        "development": 1806,
        "di": 920,
        "did": 1627,
        "dif": 399,
        "diffe": 500,
        "differen": 1055,
        "difference": 1705,
        "differences": 1961,
        "different": 728,
        "diffic": 1690,
        "difficult": 1720,
        "dig": 943,
        "digit": 1956,
        "ding": 942,
        "dire": 892,
        "direct": 1357,
        "dis": 438,
        "discus": 1795,
        "dist": 711,
        "distance": 1696,
        "dit": 1519,
        "dition": 862,
        "ditionally": 1133,
        "div": 1860,
        "diverse": 1628,
        "divid": 1862,
        "do": 426,
        "does": 1217,
        "down": 1309,
        "dr": 798,
        "dra": 1861,
        "dro": 1734,
        "ds": 799,
        "du": 244,
        "due": 954,
        "during": 893,
        "dy": 1626,
        "e": 40,
        "each": 843,
        "ear": 408,
        "early": 1272,
        "eas": 944,
        "ech": 1148,
        "econom": 686,
        "economic": 1694,
        "economy": 988,
        "ed": 157,
        "educ": 807,
        "education": 914,
        "ef": 314,
        "effect": 487,
        "effective": 1581,
        "effects": 1276,
        "effic": 1127,
        "efficient": 1434,
        "ei": 1310,
        "either": 1364,
        "el": 407,
        "ele": 1032,
        "elect": 729,
        "electric": 1810,
        "elements": 1600,
        "em": 231,
        "emiss": 1911,
        "emissions": 1984,
        "emp": 573,
        "emphas": 1804,
        "employ": 755,
        "employment": 1812,
        "en": 147,
        "ence": 252,
        "ences": 783,
        "end": 330,
        "ending": 1686,
        "enef": 1328,
        "ener": 279,
        "enerate": 486,
        "energy": 542,
        "eng": 558,
        "ength": 1351,
        "ens": 454,
        "ent": 165,
        "ential": 1896,
        "entify": 847,
        "ents": 514,
        "environment": 946,
        "environmental": 1821,
        "ep": 488,
        "equ": 758,
        "equal": 1590,
        "er": 146,
        "eral": 1645,
        "ern": 1394,
        "ero": 900,
        "err": 1327,
        "errors": 1832,
        "ers": 210,
        "erson": 681,
        "ert": 1753,
        "ery": 1251,
        "es": 151,
        "ese": 806,
        "ess": 229,
        "est": 447,
        "estim": 1798,
        "et": 203,
        "eth": 1521,
        "ets": 1665,
        "ety": 749,
        "ev": 441,
        "even": 1053,
        "event": 1273,
        "events": 1796,
        "ever": 1149,
        "every": 1311,
        "ew": 1031,
        "ex": 227,
        "exam": 644,
        "example": 795,
        "exce": 1770,
        "exist": 1559,
        "exp": 1011,
        "expect": 1771,
        "experi": 1012,
        "experience": 1507,
        "explain": 1560,
        "ext": 1173,
        "extra": 1672,
        "extre": 1673,
        "extreme": 1719,
        "ey": 1735,
        "f": 41,
        "fac": 1034,
        "face": 612,
        "faces": 1704,
        "fact": 633,
        "factor": 1220,
        "factorial": 1437,
        "facturing": 1940,
        "fall": 1630,
        "fam": 1033,
        "family": 1431,
        "far": 997,
        "fast": 1736,
        "fe": 226,
        "features": 1172,
        "fect": 411,
        "feed": 1124,
        "feedback": 1296,
        "feel": 1477,
        "fer": 1312,
        "few": 1171,
        "fic": 529,
        "field": 1523,
        "fig": 1522,
        "figure": 1981,
        "fil": 1449,
        "fin": 611,
        "financial": 1939,
        "find": 660,
        "first": 613,
        "fish": 1313,
        "five": 863,
        "fl": 593,
        "flu": 1131,
        "fo": 335,
        "fol": 272,
        "follow": 1267,
        "following": 288,
        "food": 1017,
        "for": 178,
        "force": 1900,
        "fore": 769,
        "forest": 883,
        "forests": 1819,
        "form": 307,
        "formation": 882,
        "forms": 1016,
        "found": 774,
        "four": 1376,
        "fr": 233,
        "fra": 1629,
        "free": 1151,
        "friend": 1772,
        "from": 264,
        "front": 1912,
        "fru": 1479,
        "ft": 1150,
        "ful": 452,
        "fun": 687,
        "function": 1092,
        "future": 1737,
        "g": 42,
        "game": 1452,
        "gan": 673,
        "gative": 1314,
        "ge": 189,
        "gen": 1236,
        "gener": 713,
        "generally": 1281,
        "generate": 1631,
        "ger": 1863,
        "gest": 788,
        "get": 722,
        "gh": 336,
        "gin": 1451,
        "given": 494,
        "gl": 712,
        "glo": 688,
        "global": 912,
        "gn": 822,
        "go": 361,
        "good": 884,
        "gor": 1377,
        "gover": 934,
        "govern": 1188,
        "government": 1298,
        "gr": 347,
        "gra": 1524,
        "grad": 1788,
        "gram": 696,
        "gre": 457,
        "great": 1579,
        "greater": 1415,
        "green": 1414,
        "ground": 1789,
        "group": 813,
        "groups": 1285,
        "grow": 1315,
        "gs": 1450,
        "gy": 368,
        "h": 43,
        "ha": 248,
        "had": 417,
        "hal": 1738,
        "half": 1843,
        "ham": 1103,
        "hand": 1064,
        "hap": 1563,
        "hard": 1864,
        "has": 275,
        "have": 326,
        "having": 1776,
        "he": 168,
        "head": 979,
        "health": 733,
        "healthcare": 1697,
        "heart": 1758,
        "heav": 1897,
        "hel": 569,
        "help": 608,
        "her": 1195,
        "here": 497,
        "hest": 1255,
        "hig": 1316,
        "high": 543,
        "higher": 1219,
        "highest": 1365,
        "his": 699,
        "hist": 800,
        "histor": 1354,
        "historical": 1834,
        "history": 1591,
        "ho": 600,
        "home": 1035,
        "house": 1237,
        "how": 661,
        "hum": 730,
        "human": 959,
        "hy": 1194,
        "i": 44,
        "ia": 466,
        "ial": 262,
        "ian": 601,
        "ib": 324,
        "ibe": 662,
        "ible": 598,
        "ibut": 1489,
        "ic": 161,
        "ical": 254,
        "ically": 561,
        "ice": 348,
        "ices": 618,
        "ich": 308,
        "icism": 1894,
        "ick": 927,
        "ico": 1893,
        "ics": 460,
        "ict": 765,
        "id": 230,
        "ide": 280,
        "idea": 1918,
        "ideas": 1484,
        "ident": 1174,
        "idered": 1919,
        "ie": 349,
        "ied": 775,
        "ield": 1269,
        "ien": 1633,
        "iend": 1740,
        "ient": 776,
        "ients": 1741,
        "ier": 921,
        "ies": 241,
        "if": 211,
        "ife": 736,
        "ific": 482,
        "ificial": 1218,
        "ify": 498,
        "ig": 190,
        "igh": 242,
        "ight": 297,
        "ights": 1175,
        "igious": 1661,
        "ign": 403,
        "ik": 1632,
        "il": 188,
        "ild": 809,
        "ile": 369,
        "ility": 1660,
        "ill": 312,
        "illion": 1488,
        "ills": 1487,
        "ilo": 998,
        "ilosoph": 1097,
        "ils": 1403,
        "ilt": 1659,
        "ily": 894,
        "im": 185,
        "imate": 572,
        "iment": 1551,
        "imp": 829,
        "impact": 1132,
        "implement": 1552,
        "import": 693,
        "important": 838,
        "improve": 1204,
        "imum": 1119,
        "in": 140,
        "ina": 1462,
        "ination": 1003,
        "inc": 1249,
        "ince": 805,
        "incl": 375,
        "includ": 621,
        "include": 575,
        "including": 857,
        "increas": 402,
        "increase": 833,
        "increased": 1019,
        "increasing": 1179,
        "ind": 323,
        "individ": 853,
        "individual": 889,
        "indu": 668,
        "industr": 816,
        "industry": 1355,
        "ine": 304,
        "iness": 748,
        "influ": 1326,
        "information": 1076,
        "ing": 152,
        "ings": 692,
        "ink": 747,
        "inked": 1352,
        "inno": 1885,
        "input": 1465,
        "ins": 804,
        "insp": 1463,
        "inst": 1884,
        "int": 763,
        "inte": 702,
        "intelligence": 1809,
        "inter": 523,
        "interest": 1423,
        "internet": 1499,
        "into": 480,
        "introdu": 1813,
        "ints": 1642,
        "invest": 1535,
        "invol": 1464,
        "io": 1453,
        "ion": 162,
        "ional": 1648,
        "ions": 287,
        "ious": 614,
        "ip": 306,
        "iple": 1213,
        "ipp": 1786,
        "ips": 1924,
        "iqu": 864,
        "ique": 1134,
        "ir": 200,
        "ird": 1084,
        "ire": 467,
        "ired": 1454,
        "irst": 540,
        "is": 155,
        "ise": 704,
        "ised": 1201,
        "ish": 334,
        "ished": 1491,
        "isl": 902,
        "ism": 305,
        "iss": 589,
        "issipp": 1937,
        "issu": 1252,
        "issue": 1971,
        "ist": 195,
        "ists": 415,
        "it": 160,
        "ital": 676,
        "itarian": 1892,
        "itch": 1472,
        "ite": 299,
        "ited": 559,
        "item": 951,
        "items": 1136,
        "ites": 1542,
        "ith": 205,
        "itical": 1111,
        "ities": 549,
        "iting": 1891,
        "ition": 423,
        "itional": 1575,
        "itions": 1647,
        "itive": 808,
        "its": 328,
        "ity": 261,
        "ium": 1739,
        "iv": 199,
        "ival": 1904,
        "ive": 225,
        "ived": 1008,
        "iven": 404,
        "iver": 723,
        "ivers": 1206,
        "iverse": 1282,
        "iversity": 1968,
        "ives": 680,
        "ivid": 639,
        "ivil": 1765,
        "iving": 1007,
        "ivity": 1556,
        "ix": 1065,
        "iz": 293,
        "ization": 1212,
        "ize": 507,
        "ized": 683,
        "izes": 1567,
        "j": 45,
        "je": 700,
        "ject": 756,
        "jo": 1152,
        "job": 1525,
        "jor": 777,
        "joy": 1707,
        "just": 999,
        "k": 46,
        "ke": 256,
        "ked": 1865,
        "keep": 1778,
        "kes": 1153,
        "ket": 801,
        "key": 1914,
        "king": 355,
        "know": 623,
        "knowledge": 1693,
        "known": 987,
        "ks": 391,
        "l": 47,
        "la": 1455,
        "lack": 1526,
        "land": 577,
        "lands": 1805,
        "langu": 714,
        "language": 913,
        "large": 495,
        "largest": 1054,
        "last": 1318,
        "late": 1238,
        "law": 1105,
        "laws": 1963,
        "ld": 250,
        "le": 164,
        "lead": 720,
        "lear": 525,
        "learning": 793,
        "least": 1895,
        "lect": 352,
        "led": 634,
        "ledge": 1586,
        "leep": 1649,
        "left": 1650,
        "leg": 705,
        "legisl": 1058,
        "legislature": 1706,
        "les": 509,
        "less": 615,
        "let": 503,
        "letter": 908,
        "level": 1114,
        "levels": 1603,
        "lex": 1113,
        "li": 432,
        "lib": 1378,
        "lie": 1036,
        "life": 778,
        "light": 453,
        "like": 518,
        "lim": 1317,
        "limited": 1831,
        "lin": 1066,
        "line": 475,
        "ling": 1867,
        "list": 544,
        "lives": 1319,
        "ll": 350,
        "llig": 1493,
        "lligence": 1610,
        "lo": 174,
        "loc": 1336,
        "local": 1760,
        "log": 1759,
        "lon": 1866,
        "long": 1104,
        "loo": 1545,
        "lop": 570,
        "love": 1164,
        "low": 218,
        "lower": 1208,
        "lowing": 276,
        "loy": 581,
        "ly": 184,
        "m": 48,
        "ma": 221,
        "mach": 1170,
        "machine": 1362,
        "made": 1048,
        "main": 642,
        "major": 812,
        "make": 591,
        "making": 932,
        "man": 521,
        "manage": 1417,
        "management": 1976,
        "many": 555,
        "mar": 483,
        "market": 1129,
        "mat": 1154,
        "max": 1408,
        "maximum": 1836,
        "may": 1010,
        "mb": 1527,
        "me": 277,
        "mean": 832,
        "meaning": 1186,
        "means": 1482,
        "meas": 1176,
        "measured": 1966,
        "med": 585,
        "media": 1182,
        "mem": 715,
        "members": 1588,
        "ment": 222,
        "ments": 541,
        "mer": 414,
        "met": 1239,
        "method": 1483,
        "mid": 1528,
        "mig": 1381,
        "mil": 1380,
        "min": 520,
        "ming": 545,
        "mit": 1320,
        "mo": 194,
        "model": 706,
        "models": 1424,
        "moder": 1205,
        "modern": 1299,
        "mon": 742,
        "mor": 1379,
        "more": 373,
        "most": 413,
        "mot": 1404,
        "motiv": 1711,
        "move": 638,
        "movement": 1057,
        "movie": 1662,
        "ms": 663,
        "much": 1000,
        "mult": 1382,
        "multiple": 1835,
        "mus": 1742,
        "must": 1529,
        "my": 759,
        "n": 49,
        "nam": 896,
        "name": 1002,
        "nat": 743,
        "national": 1868,
        "natural": 839,
        "nature": 1634,
        "ne": 234,
        "near": 1264,
        "necess": 1561,
        "necessary": 1716,
        "need": 851,
        "negative": 1480,
        "ner": 1240,
        "ness": 1001,
        "net": 556,
        "network": 1585,
        "networks": 1803,
        "new": 394,
        "ney": 1913,
        "night": 1456,
        "ning": 444,
        "no": 232,
        "non": 895,
        "nor": 823,
        "not": 429,
        "novel": 1478,
        "now": 362,
        "nuc": 1869,
        "num": 448,
        "number": 770,
        "numbers": 1274,
        "o": 50,
        "ob": 476,
        "object": 1498,
        "oc": 716,
        "occur": 1426,
        "od": 290,
        "of": 154,
        "off": 651,
        "offer": 1808,
        "often": 948,
        "og": 564,
        "ograph": 1935,
        "ogy": 717,
        "ok": 649,
        "ol": 171,
        "old": 1257,
        "olog": 1398,
        "ology": 787,
        "ols": 871,
        "om": 166,
        "ome": 359,
        "omet": 1473,
        "omin": 1081,
        "on": 144,
        "one": 302,
        "ones": 1752,
        "oney": 1785,
        "ong": 395,
        "online": 1004,
        "only": 690,
        "onom": 1108,
        "onomy": 1602,
        "ons": 617,
        "ont": 1163,
        "oo": 1870,
        "ood": 1067,
        "op": 259,
        "open": 852,
        "oper": 1037,
        "ople": 470,
        "opt": 1677,
        "or": 150,
        "ord": 1078,
        "order": 675,
        "ore": 1873,
        "organ": 1079,
        "orid": 1890,
        "orig": 1756,
        "ors": 459,
        "ort": 976,
        "ory": 433,
        "os": 966,
        "ose": 824,
        "ot": 760,
        "ote": 1457,
        "oth": 1872,
        "other": 381,
        "others": 1791,
        "oto": 1743,
        "ou": 163,
        "oud": 1080,
        "ough": 354,
        "ought": 1571,
        "ould": 319,
        "oun": 220,
        "ound": 317,
        "ountain": 1671,
        "oup": 786,
        "our": 260,
        "ources": 790,
        "ours": 1916,
        "ourt": 1565,
        "ous": 311,
        "ouse": 1112,
        "out": 291,
        "output": 1922,
        "outs": 1757,
        "ove": 1874,
        "over": 522,
        "ow": 329,
        "own": 738,
        "ox": 1871,
        "p": 51,
        "pa": 1068,
        "page": 1458,
        "paper": 1432,
        "par": 689,
        "pare": 1156,
        "part": 421,
        "partic": 1052,
        "pass": 825,
        "passage": 1815,
        "past": 1635,
        "pat": 1069,
        "pe": 216,
        "pect": 877,
        "pen": 967,
        "people": 491,
        "per": 239,
        "perform": 1342,
        "peri": 682,
        "period": 1502,
        "person": 866,
        "personal": 1952,
        "ph": 286,
        "pha": 780,
        "philosoph": 1268,
        "philosophical": 1973,
        "photo": 1783,
        "phr": 1050,
        "phrase": 1189,
        "phys": 1486,
        "physical": 1839,
        "ping": 1155,
        "pl": 209,
        "plac": 1767,
        "place": 1340,
        "plain": 629,
        "plan": 553,
        "planet": 910,
        "plant": 1263,
        "plants": 1667,
        "plat": 1906,
        "play": 789,
        "playing": 1949,
        "ple": 420,
        "plement": 1413,
        "ples": 1339,
        "plic": 641,
        "po": 214,
        "poem": 1558,
        "point": 1908,
        "points": 1909,
        "pol": 546,
        "political": 1584,
        "poll": 1500,
        "poor": 1907,
        "pop": 750,
        "popular": 1698,
        "population": 1222,
        "por": 303,
        "porary": 1923,
        "port": 371,
        "ported": 1572,
        "ports": 1015,
        "pos": 405,
        "pose": 953,
        "posed": 1574,
        "position": 1691,
        "positive": 1089,
        "poss": 1180,
        "possible": 1435,
        "post": 1407,
        "potent": 981,
        "potential": 1027,
        "power": 707,
        "powerful": 1947,
        "pr": 289,
        "pract": 1383,
        "pre": 510,
        "pred": 844,
        "predict": 1356,
        "pres": 364,
        "present": 654,
        "presents": 1927,
        "press": 905,
        "pression": 1291,
        "pri": 1681,
        "price": 1346,
        "prices": 1921,
        "prim": 1014,
        "prime": 1959,
        "pro": 197,
        "proble": 1046,
        "problem": 1509,
        "process": 473,
        "processing": 1580,
        "produ": 469,
        "product": 727,
        "production": 1933,
        "prof": 955,
        "program": 1045,
        "prom": 1920,
        "proper": 1555,
        "prote": 1262,
        "prov": 463,
        "prove": 1044,
        "provid": 906,
        "provide": 1021,
        "provides": 1954,
        "pt": 761,
        "ption": 1636,
        "pu": 779,
        "public": 859,
        "pur": 865,
        "purpose": 1701,
        "put": 718,
        "q": 52,
        "qrt": 1321,
        "qu": 243,
        "quest": 1125,
        "question": 1828,
        "quick": 1675,
        "r": 53,
        "ra": 217,
        "ract": 1169,
        "rad": 586,
        "radi": 794,
        "radiation": 1427,
        "rain": 1047,
        "ral": 1038,
        "ram": 1637,
        "rang": 1745,
        "range": 1040,
        "rap": 1910,
        "raph": 878,
        "rast": 1168,
        "rate": 1384,
        "ration": 968,
        "re": 143,
        "reach": 1392,
        "read": 828,
        "rece": 1886,
        "recent": 1393,
        "reco": 899,
        "recogn": 990,
        "recor": 1751,
        "rect": 1041,
        "red": 296,
        "redu": 604,
        "reduce": 836,
        "ree": 370,
        "ref": 439,
        "reflect": 607,
        "reg": 567,
        "region": 1936,
        "rel": 579,
        "related": 1420,
        "rele": 1466,
        "remo": 1750,
        "ren": 282,
        "rench": 1177,
        "renew": 1537,
        "renewable": 1714,
        "rent": 456,
        "rents": 1412,
        "reported": 1887,
        "represent": 974,
        "requ": 926,
        "require": 1955,
        "res": 219,
        "resh": 1670,
        "resources": 1768,
        "resp": 724,
        "respon": 1184,
        "respons": 1589,
        "response": 1967,
        "responsible": 1982,
        "ress": 751,
        "rest": 418,
        "restaur": 1349,
        "restaurant": 1606,
        "resul": 782,
        "result": 1814,
        "return": 975,
        "revolution": 1162,
        "revolutionary": 1964,
        "ric": 650,
        "right": 1322,
        "ris": 1039,
        "rit": 635,
        "rite": 477,
        "ritory": 1807,
        "ro": 173,
        "rodu": 1335,
        "role": 1653,
        "ron": 1744,
        "rop": 1400,
        "ross": 980,
        "rough": 530,
        "round": 1241,
        "rounded": 1510,
        "row": 678,
        "rt": 1070,
        "run": 1875,
        "rup": 1746,
        "ry": 1071,
        "s": 54,
        "sal": 1323,
        "same": 1532,
        "scal": 1386,
        "scale": 1710,
        "sch": 664,
        "scho": 1025,
        "school": 1826,
        "schools": 1703,
        "sci": 1072,
        "scient": 1601,
        "se": 177,
        "sea": 1117,
        "search": 1260,
        "season": 1899,
        "sec": 1655,
        "second": 1549,
        "see": 1082,
        "seen": 1548,
        "sel": 874,
        "self": 1187,
        "sent": 301,
        "sentence": 339,
        "sentences": 1347,
        "sequ": 1402,
        "ser": 409,
        "serv": 532,
        "service": 1350,
        "services": 1277,
        "set": 571,
        "sever": 1656,
        "several": 1841,
        "sh": 268,
        "she": 1243,
        "ship": 1211,
        "shop": 1344,
        "short": 1780,
        "should": 485,
        "show": 1345,
        "sid": 1531,
        "side": 1197,
        "sign": 923,
        "signific": 1358,
        "significant": 1511,
        "sim": 922,
        "simple": 1820,
        "since": 1073,
        "sing": 845,
        "single": 1592,
        "sis": 1157,
        "sit": 1876,
        "size": 1877,
        "sk": 744,
        "skills": 1811,
        "sky": 1284,
        "sm": 636,
        "small": 837,
        "sn": 1385,
        "snow": 745,
        "so": 228,
        "soci": 597,
        "social": 725,
        "society": 1183,
        "sof": 1242,
        "software": 1970,
        "sol": 397,
        "solar": 1051,
        "solutions": 1930,
        "some": 511,
        "something": 1934,
        "soph": 1013,
        "sor": 1196,
        "sou": 1530,
        "sound": 1107,
        "sources": 1158,
        "sp": 374,
        "space": 1270,
        "spe": 401,
        "spec": 814,
        "species": 1095,
        "spect": 1573,
        "sphere": 1271,
        "spread": 1494,
        "sqrt": 1324,
        "squ": 1106,
        "square": 1361,
        "ss": 578,
        "st": 148,
        "stain": 1540,
        "stand": 691,
        "start": 1755,
        "state": 283,
        "statement": 1680,
        "states": 1109,
        "stay": 1329,
        "ste": 784,
        "stead": 1948,
        "stem": 481,
        "step": 1468,
        "ster": 1754,
        "still": 1889,
        "stit": 869,
        "stitution": 1288,
        "sto": 901,
        "stor": 1077,
        "store": 1953,
        "story": 947,
        "str": 245,
        "strateg": 1481,
        "strategies": 1838,
        "string": 1265,
        "strong": 1775,
        "stru": 499,
        "struct": 697,
        "struction": 1582,
        "structure": 1695,
        "stud": 568,
        "student": 1419,
        "study": 986,
        "sty": 1467,
        "style": 1979,
        "su": 196,
        "sub": 931,
        "suc": 830,
        "success": 938,
        "successful": 1294,
        "such": 356,
        "sug": 1663,
        "suggest": 1842,
        "sul": 694,
        "sum": 810,
        "sun": 1122,
        "sup": 1006,
        "sur": 478,
        "sure": 1261,
        "surface": 815,
        "surfaces": 1802,
        "sy": 385,
        "syn": 1495,
        "system": 517,
        "systems": 1416,
        "t": 55,
        "ta": 427,
        "table": 1879,
        "tag": 1878,
        "tail": 1794,
        "tain": 666,
        "take": 1020,
        "tal": 897,
        "tas": 924,
        "tasks": 1293,
        "tax": 1932,
        "te": 198,
        "team": 1083,
        "techn": 628,
        "technology": 911,
        "ted": 616,
        "tem": 515,
        "temper": 710,
        "temperature": 1093,
        "temperatures": 1425,
        "ten": 547,
        "tend": 867,
        "tent": 762,
        "ter": 223,
        "term": 1123,
        "tern": 879,
        "ters": 1388,
        "test": 850,
        "tex": 734,
        "text": 817,
        "th": 139,
        "than": 445,
        "that": 206,
        "the": 142,
        "their": 382,
        "them": 537,
        "then": 1391,
        "ther": 251,
        "there": 595,
        "thern": 1210,
        "these": 973,
        "they": 548,
        "thing": 1160,
        "third": 1641,
        "this": 468,
        "thod": 1325,
        "thor": 898,
        "those": 1248,
        "though": 972,
        "thought": 1823,
        "three": 803,
        "through": 667,
        "tics": 1460,
        "tim": 410,
        "time": 533,
        "ting": 461,
        "tion": 557,
        "tit": 1387,
        "tle": 1639,
        "to": 158,
        "toge": 1332,
        "together": 1366,
        "ton": 1074,
        "top": 764,
        "tor": 1638,
        "total": 1396,
        "tow": 950,
        "town": 1957,
        "tr": 263,
        "tra": 458,
        "trad": 1266,
        "traditional": 1972,
        "train": 1799,
        "trans": 652,
        "tre": 665,
        "tree": 1459,
        "trees": 1221,
        "ts": 255,
        "tsville": 1777,
        "turn": 731,
        "tw": 377,
        "tware": 1928,
        "two": 435,
        "ty": 342,
        "typ": 647,
        "type": 904,
        "types": 1587,
        "typically": 1091,
        "u": 56,
        "ual": 512,
        "ually": 1245,
        "ub": 1461,
        "uc": 637,
        "uch": 802,
        "ud": 295,
        "ude": 479,
        "ue": 450,
        "uel": 1880,
        "ug": 925,
        "ul": 208,
        "ular": 605,
        "ularly": 1692,
        "ulation": 1086,
        "ult": 490,
        "um": 246,
        "un": 201,
        "und": 1207,
        "under": 551,
        "understand": 985,
        "understanding": 1824,
        "unique": 1664,
        "unrounded": 1766,
        "unt": 1338,
        "up": 343,
        "upon": 1687,
        "ur": 183,
        "ural": 455,
        "urban": 1762,
        "ure": 278,
        "ured": 1411,
        "ures": 565,
        "uring": 489,
        "urn": 531,
        "uro": 1244,
        "urther": 1901,
        "ury": 721,
        "us": 187,
        "use": 502,
        "used": 309,
        "user": 1657,
        "uses": 766,
        "ush": 1553,
        "using": 538,
        "ust": 379,
        "ustom": 708,
        "usually": 1658,
        "ut": 202,
        "ute": 1640,
        "ution": 434,
        "utions": 1009,
        "uture": 1557,
        "v": 57,
        "val": 484,
        "valu": 1130,
        "value": 907,
        "values": 1829,
        "vari": 566,
        "various": 1056,
        "vation": 1881,
        "ve": 170,
        "ved": 846,
        "vel": 550,
        "velop": 580,
        "ven": 1747,
        "vent": 969,
        "vention": 1958,
        "ver": 224,
        "verb": 1769,
        "vered": 1544,
        "vers": 970,
        "vert": 1209,
        "very": 643,
        "ves": 1198,
        "vest": 1256,
        "vi": 826,
        "vide": 945,
        "vie": 971,
        "view": 1702,
        "vil": 1159,
        "ville": 1226,
        "ving": 701,
        "viol": 1429,
        "violence": 1977,
        "vir": 624,
        "viron": 772,
        "vironment": 840,
        "vis": 827,
        "vo": 471,
        "vol": 536,
        "volution": 887,
        "voting": 1801,
        "vowel": 1181,
        "w": 58,
        "wa": 1882,
        "wal": 1534,
        "want": 1389,
        "war": 868,
        "warming": 1504,
        "was": 265,
        "water": 587,
        "way": 422,
        "ways": 937,
        "we": 204,
        "weather": 1905,
        "web": 620,
        "webs": 1024,
        "website": 1295,
        "ween": 446,
        "wel": 1085,
        "well": 767,
        "wer": 594,
        "were": 506,
        "west": 1666,
        "wever": 1476,
        "wh": 207,
        "what": 735,
        "when": 640,
        "where": 781,
        "which": 322,
        "while": 695,
        "who": 552,
        "why": 1166,
        "wide": 1246,
        "will": 602,
        "win": 1533,
        "with": 215,
        "within": 1341,
        "without": 1167,
        "won": 1883,
        "wor": 240,
        "word": 430,
        "words": 709,
        "work": 464,
        "working": 1774,
        "works": 1343,
        "world": 574,
        "would": 746,
        "writ": 1247,
        "write": 732,
        "x": 59,
        "y": 60,
        "year": 625,
        "years": 1090,
        "you": 513,
        "your": 603,
        "ys": 1075,
        "z": 61,
        "ze": 1199,
        "\u00c0": 62,
        "\u00c1": 63,
        "\u00c2": 64,
        "\u00c3": 65,
        "\u00c4": 66,
        "\u00c5": 67,
        "\u00e0": 68,
        "\u00e1": 69,
        "\u00e2": 70,
        "\u00e3": 71,
        "\u00e4": 72,
        "\u00e5": 73,
        "\u00e9": 74,
        "\u00ed": 75,
        "\u00f3": 76,
        "\u0100": 77,
        "\u0101": 78,
        "\u0102": 79,
        "\u0103": 80,
        "\u0104": 81,
        "\u0105": 82,
        "\u01cd": 83,
        "\u01ce": 84,
        "\u01de": 85,
        "\u01df": 86,
        "\u01e0": 87,
        "\u01e1": 88,
        "\u01fa": 89,
        "\u01fb": 90,
        "\u0200": 91,
        "\u0201": 92,
        "\u0202": 93,
        "\u0203": 94,
        "\u0226": 95,
        "\u0227": 96,
        "\u023a": 97,
        "\u0250": 98,
        "\u0251": 99,
        "\u0252": 100,
        "\u028c": 101,
        "\u1d00": 102,
        "\u1d8f": 103,
        "\u1d90": 104,
        "\u1e00": 105,
        "\u1e01": 106,
        "\u1e9a": 107,
        "\u1ea0": 108,
        "\u1ea1": 109,
        "\u1ea2": 110,
        "\u1ea3": 111,
        "\u1ea4": 112,
        "\u1ea5": 113,
        "\u1ea6": 114,
        "\u1ea7": 115,
        "\u1ea8": 116,
        "\u1ea9": 117,
        "\u1eaa": 118,
        "\u1eab": 119,
        "\u1eac": 120,
        "\u1ead": 121,
        "\u1eae": 122,
        "\u1eaf": 123,
        "\u1eb0": 124,
        "\u1eb1": 125,
        "\u1eb2": 126,
        "\u1eb3": 127,
        "\u1eb4": 128,
        "\u1eb5": 129,
        "\u1eb6": 130,
        "\u1eb7": 131,
        "\u2c65": 132,
        "\u2c6d": 133,
        "\u2c6f": 134,
        "\u2c70": 135,
        "\ua7ba": 136,
        "\ua7bb": 137,
        "\uab31": 138
    }
}
